unsigned int model1_len = 6688;

alignas(8) const unsigned char model1[] = {
     0x1c, 0x00, 0x00, 0x00, 0x54, 0x46, 0x4c, 0x33, 0x14, 0x00, 0x20, 0x00,
     0x1c, 0x00, 0x18, 0x00, 0x14, 0x00, 0x10, 0x00, 0x0c, 0x00, 0x00, 0x00,
     0x08, 0x00, 0x04, 0x00, 0x14, 0x00, 0x00, 0x00, 0x1c, 0x00, 0x00, 0x00,
     0x98, 0x00, 0x00, 0x00, 0xf0, 0x00, 0x00, 0x00, 0x24, 0x14, 0x00, 0x00,
     0x34, 0x14, 0x00, 0x00, 0xcc, 0x19, 0x00, 0x00, 0x03, 0x00, 0x00, 0x00,
     0x01, 0x00, 0x00, 0x00, 0x10, 0x00, 0x00, 0x00, 0x00, 0x00, 0x0a, 0x00,
     0x10, 0x00, 0x0c, 0x00, 0x08, 0x00, 0x04, 0x00, 0x0a, 0x00, 0x00, 0x00,
     0x0c, 0x00, 0x00, 0x00, 0x1c, 0x00, 0x00, 0x00, 0x3c, 0x00, 0x00, 0x00,
     0x0f, 0x00, 0x00, 0x00, 0x73, 0x65, 0x72, 0x76, 0x69, 0x6e, 0x67, 0x5f,
     0x64, 0x65, 0x66, 0x61, 0x75, 0x6c, 0x74, 0x00, 0x01, 0x00, 0x00, 0x00,
     0x04, 0x00, 0x00, 0x00, 0x90, 0xff, 0xff, 0xff, 0x0b, 0x00, 0x00, 0x00,
     0x04, 0x00, 0x00, 0x00, 0x08, 0x00, 0x00, 0x00, 0x6f, 0x75, 0x74, 0x70,
     0x75, 0x74, 0x5f, 0x30, 0x00, 0x00, 0x00, 0x00, 0x01, 0x00, 0x00, 0x00,
     0x04, 0x00, 0x00, 0x00, 0xea, 0xec, 0xff, 0xff, 0x04, 0x00, 0x00, 0x00,
     0x0c, 0x00, 0x00, 0x00, 0x6b, 0x65, 0x72, 0x61, 0x73, 0x5f, 0x74, 0x65,
     0x6e, 0x73, 0x6f, 0x72, 0x00, 0x00, 0x00, 0x00, 0x02, 0x00, 0x00, 0x00,
     0x34, 0x00, 0x00, 0x00, 0x04, 0x00, 0x00, 0x00, 0xdc, 0xff, 0xff, 0xff,
     0x0e, 0x00, 0x00, 0x00, 0x04, 0x00, 0x00, 0x00, 0x13, 0x00, 0x00, 0x00,
     0x43, 0x4f, 0x4e, 0x56, 0x45, 0x52, 0x53, 0x49, 0x4f, 0x4e, 0x5f, 0x4d,
     0x45, 0x54, 0x41, 0x44, 0x41, 0x54, 0x41, 0x00, 0x08, 0x00, 0x0c, 0x00,
     0x08, 0x00, 0x04, 0x00, 0x08, 0x00, 0x00, 0x00, 0x0d, 0x00, 0x00, 0x00,
     0x04, 0x00, 0x00, 0x00, 0x13, 0x00, 0x00, 0x00, 0x6d, 0x69, 0x6e, 0x5f,
     0x72, 0x75, 0x6e, 0x74, 0x69, 0x6d, 0x65, 0x5f, 0x76, 0x65, 0x72, 0x73,
     0x69, 0x6f, 0x6e, 0x00, 0x0f, 0x00, 0x00, 0x00, 0x30, 0x13, 0x00, 0x00,
     0x28, 0x13, 0x00, 0x00, 0x98, 0x12, 0x00, 0x00, 0x00, 0x12, 0x00, 0x00,
     0xf0, 0x01, 0x00, 0x00, 0x60, 0x01, 0x00, 0x00, 0x4c, 0x01, 0x00, 0x00,
     0xbc, 0x00, 0x00, 0x00, 0xa8, 0x00, 0x00, 0x00, 0xa0, 0x00, 0x00, 0x00,
     0x98, 0x00, 0x00, 0x00, 0x90, 0x00, 0x00, 0x00, 0x88, 0x00, 0x00, 0x00,
     0x68, 0x00, 0x00, 0x00, 0x04, 0x00, 0x00, 0x00, 0xa2, 0xed, 0xff, 0xff,
     0x04, 0x00, 0x00, 0x00, 0x54, 0x00, 0x00, 0x00, 0x0c, 0x00, 0x00, 0x00,
     0x08, 0x00, 0x0e, 0x00, 0x08, 0x00, 0x04, 0x00, 0x08, 0x00, 0x00, 0x00,
     0x10, 0x00, 0x00, 0x00, 0x24, 0x00, 0x00, 0x00, 0x00, 0x00, 0x06, 0x00,
     0x08, 0x00, 0x04, 0x00, 0x06, 0x00, 0x00, 0x00, 0x04, 0x00, 0x00, 0x00,
     0x00, 0x00, 0x00, 0x00, 0x00, 0x00, 0x0a, 0x00, 0x10, 0x00, 0x0c, 0x00,
     0x08, 0x00, 0x04, 0x00, 0x0a, 0x00, 0x00, 0x00, 0x01, 0x00, 0x00, 0x00,
     0x02, 0x00, 0x00, 0x00, 0x04, 0x00, 0x00, 0x00, 0x06, 0x00, 0x00, 0x00,
     0x32, 0x2e, 0x31, 0x36, 0x2e, 0x31, 0x00, 0x00, 0x02, 0xee, 0xff, 0xff,
     0x04, 0x00, 0x00, 0x00, 0x10, 0x00, 0x00, 0x00, 0x31, 0x2e, 0x35, 0x2e,
     0x30, 0x00, 0x00, 0x00, 0x00, 0x00, 0x00, 0x00, 0x00, 0x00, 0x00, 0x00,
     0x0c, 0xe8, 0xff, 0xff, 0x10, 0xe8, 0xff, 0xff, 0x14, 0xe8, 0xff, 0xff,
     0x18, 0xe8, 0xff, 0xff, 0x2e, 0xee, 0xff, 0xff, 0x04, 0x00, 0x00, 0x00,
     0x04, 0x00, 0x00, 0x00, 0xbe, 0x05, 0xcd, 0x3f, 0x3e, 0xee, 0xff, 0xff,
     0x04, 0x00, 0x00, 0x00, 0x80, 0x00, 0x00, 0x00, 0x00, 0x00, 0x00, 0x00,
     0x97, 0x1f, 0x1e, 0xbc, 0x9e, 0x4f, 0x09, 0xbd, 0x27, 0x4c, 0x70, 0x3e,
     0xd2, 0x9b, 0x3b, 0x3e, 0x00, 0x00, 0x00, 0x00, 0xe2, 0x9a, 0x47, 0xbd,
     0xcb, 0xf3, 0x87, 0x3d, 0x01, 0xc2, 0x3f, 0x3e, 0xaf, 0x8d, 0x2b, 0xbd,
     0x99, 0x84, 0xa0, 0x3c, 0x00, 0x00, 0x00, 0x00, 0x50, 0x0f, 0x65, 0x3e,
     0x70, 0x1b, 0x3a, 0xbe, 0x28, 0xb0, 0x42, 0xbe, 0x71, 0x64, 0x08, 0x3d,
     0xd5, 0xbb, 0x0c, 0xbd, 0x00, 0x00, 0x00, 0x00, 0x00, 0x00, 0x00, 0x00,
     0xe5, 0x53, 0x48, 0x3d, 0xaf, 0xd4, 0x2e, 0x3e, 0x99, 0x10, 0x29, 0xbd,
     0x7d, 0x1e, 0x40, 0xbc, 0xc3, 0x06, 0x46, 0x3d, 0x20, 0x77, 0x75, 0x3e,
     0x1a, 0x51, 0x72, 0x3e, 0x64, 0x32, 0x07, 0x3d, 0x59, 0x9e, 0x0b, 0xbd,
     0x9f, 0x8b, 0x3c, 0xbe, 0x00, 0x00, 0x00, 0x00, 0x7d, 0xa3, 0x21, 0x3e,
     0x93, 0x6c, 0x08, 0x3d, 0xca, 0xee, 0xff, 0xff, 0x04, 0x00, 0x00, 0x00,
     0x04, 0x00, 0x00, 0x00, 0x58, 0xae, 0x09, 0xbd, 0xda, 0xee, 0xff, 0xff,
     0x04, 0x00, 0x00, 0x00, 0x80, 0x00, 0x00, 0x00, 0xf1, 0x06, 0xc0, 0x3e,
     0xd8, 0xd2, 0x3e, 0xbe, 0x7a, 0xad, 0x7d, 0xbe, 0x10, 0xbd, 0x41, 0x3e,
     0x97, 0xf3, 0x53, 0x3e, 0x58, 0x2b, 0xbe, 0x3e, 0x0d, 0xd9, 0xa8, 0x3e,
     0x3a, 0x3d, 0x43, 0x3d, 0x65, 0xd6, 0x3b, 0x3e, 0xba, 0xc9, 0xb7, 0x3d,
     0x48, 0xe1, 0x6e, 0x3e, 0xac, 0x35, 0xc1, 0xbe, 0x25, 0xa3, 0x2d, 0x3d,
     0x77, 0xbe, 0xef, 0x3d, 0x78, 0x0c, 0xbf, 0x3d, 0x53, 0x31, 0xd7, 0x3e,
     0x42, 0xf0, 0x5e, 0x3e, 0xbb, 0xc0, 0xc7, 0x3e, 0x77, 0xf9, 0x8d, 0x3e,
     0x98, 0xb5, 0xc0, 0x3e, 0xc1, 0xea, 0xc2, 0xbe, 0x97, 0x3a, 0xdd, 0xbe,
     0xe9, 0x50, 0xd1, 0x3e, 0xce, 0x5a, 0x49, 0xbe, 0x23, 0x28, 0x11, 0xbe,
     0x0f, 0x5b, 0x50, 0x3e, 0xac, 0x0d, 0x89, 0x3e, 0x5d, 0x51, 0x86, 0xbe,
     0x91, 0x7a, 0x59, 0x3e, 0x06, 0xea, 0x91, 0x3e, 0x87, 0xff, 0x32, 0x3e,
     0x70, 0x6e, 0x82, 0xbd, 0x66, 0xef, 0xff, 0xff, 0x04, 0x00, 0x00, 0x00,
     0x00, 0x10, 0x00, 0x00, 0x5a, 0x98, 0x54, 0xbe, 0x78, 0xe4, 0xd9, 0xbd,
     0x84, 0x38, 0x8d, 0xbd, 0x0c, 0x65, 0xe4, 0x3d, 0xa0, 0xea, 0xfa, 0xbc,
     0x2a, 0x53, 0xee, 0xbd, 0xc4, 0x91, 0x8c, 0x3d, 0x30, 0x77, 0x4c, 0xbe,
     0x9f, 0xb6, 0x29, 0xbe, 0x87, 0xe9, 0x83, 0xbe, 0x36, 0x72, 0x46, 0x3e,
     0x00, 0xfd, 0x14, 0xbd, 0xf2, 0xd6, 0x9a, 0xbe, 0x9a, 0xda, 0x14, 0x3e,
     0x43, 0x19, 0x31, 0xbe, 0x40, 0x2f, 0xa8, 0x3b, 0x0f, 0x16, 0x98, 0xbe,
     0x68, 0x94, 0xaf, 0x3d, 0x24, 0xd6, 0xcc, 0xbd, 0x52, 0x2a, 0xde, 0xbd,
     0x86, 0xc0, 0x4f, 0x3e, 0x26, 0xf3, 0xf6, 0xbd, 0xed, 0x3b, 0x90, 0xbe,
     0xcb, 0x78, 0x91, 0x3e, 0xd4, 0xb6, 0xb5, 0x3d, 0xa4, 0x37, 0xfd, 0xbd,
     0xfc, 0x00, 0x91, 0x3d, 0x2c, 0xf4, 0x6f, 0xbe, 0xa8, 0xb4, 0xd8, 0x3d,
     0x41, 0x61, 0x9b, 0x3e, 0x75, 0x79, 0x3a, 0xbe, 0x92, 0xac, 0x36, 0xbe,
     0x57, 0x10, 0x2e, 0xbe, 0x6d, 0xd9, 0x82, 0xbe, 0xa6, 0xd4, 0x46, 0xbe,
     0xb5, 0x41, 0x1b, 0x3e, 0x31, 0x6d, 0x5f, 0x3e, 0x7b, 0x1b, 0xb5, 0x3d,
     0x6d, 0x93, 0xa7, 0xbc, 0xf1, 0x33, 0x8c, 0xbd, 0x36, 0xe0, 0x2d, 0xbd,
     0xf4, 0x2b, 0x54, 0xbe, 0xe1, 0x7c, 0xf5, 0xbd, 0xb2, 0x37, 0x7a, 0x3e,
     0x01, 0x17, 0x93, 0x3e, 0xb6, 0x25, 0x13, 0x3e, 0xf5, 0x75, 0x8b, 0xbd,
     0x57, 0x03, 0x87, 0xbe, 0xbd, 0x14, 0x06, 0x3e, 0x25, 0xe6, 0x61, 0x3e,
     0xfd, 0x15, 0xd3, 0xbc, 0x84, 0x40, 0x90, 0x3e, 0x50, 0x8c, 0x42, 0x3e,
     0xf8, 0x3d, 0x5f, 0x3d, 0x66, 0xed, 0xae, 0xbd, 0x1e, 0xe0, 0x8d, 0xbe,
     0x82, 0x96, 0x4a, 0x3e, 0x36, 0x9e, 0x23, 0x3e, 0x3b, 0x0f, 0xda, 0x3d,
     0x90, 0xdc, 0xd4, 0x3c, 0x8d, 0x7a, 0x9c, 0xbe, 0x7e, 0x41, 0x8d, 0xbe,
     0x8d, 0xd0, 0x04, 0x3e, 0xe6, 0xb5, 0x4e, 0xbe, 0x20, 0xe8, 0x2c, 0x3e,
     0xd6, 0x03, 0x13, 0xbe, 0xd3, 0x03, 0x76, 0x3e, 0x87, 0xb9, 0xc0, 0x3c,
     0x70, 0x42, 0x7c, 0x3e, 0xec, 0xe5, 0xae, 0xbc, 0x7a, 0x80, 0xad, 0x3d,
     0x0e, 0x3e, 0x60, 0xbc, 0x4a, 0x18, 0x2e, 0x3e, 0x18, 0x01, 0xad, 0x3d,
     0xe9, 0x24, 0xf5, 0x3d, 0x90, 0xac, 0x6f, 0x3e, 0x91, 0x8d, 0x9d, 0xbd,
     0x1c, 0x4a, 0xd7, 0x3d, 0x56, 0x9e, 0x30, 0x3e, 0x66, 0x17, 0x68, 0xbe,
     0x38, 0x2c, 0x11, 0x3e, 0x04, 0xcc, 0x88, 0x3e, 0xd0, 0x4c, 0xf0, 0x3d,
     0x73, 0x86, 0x6e, 0xbe, 0xb8, 0x5a, 0x9a, 0xbd, 0x9b, 0xbc, 0x4a, 0x3e,
     0xe7, 0x33, 0xb2, 0x3c, 0x57, 0x09, 0x9b, 0xbd, 0xf8, 0x31, 0x22, 0xbe,
     0x1a, 0x9b, 0x11, 0xbe, 0x43, 0x03, 0x9e, 0xbc, 0xf9, 0xf4, 0x92, 0x3e,
     0xd4, 0x0c, 0x49, 0xbe, 0x93, 0x6d, 0x88, 0x3c, 0x46, 0x43, 0x2c, 0x3d,
     0x96, 0x03, 0xfd, 0xbd, 0x45, 0x8c, 0xb7, 0x3d, 0x69, 0x52, 0x12, 0xbe,
     0x0b, 0x27, 0xf6, 0xbc, 0x92, 0x4d, 0x9c, 0xbe, 0x90, 0x1e, 0x5e, 0xbd,
     0x11, 0x85, 0x59, 0xbe, 0x5d, 0x99, 0x85, 0x3e, 0x4b, 0x23, 0xb1, 0x3e,
     0x94, 0x47, 0x89, 0xbb, 0xe2, 0xe9, 0x80, 0x3e, 0xc4, 0x3f, 0xc6, 0xbe,
     0x12, 0x40, 0x89, 0x3e, 0x9e, 0xbc, 0x55, 0x3e, 0x38, 0x84, 0x82, 0xbe,
     0x69, 0x7c, 0xbd, 0xbe, 0xb7, 0x4e, 0x97, 0xbe, 0x80, 0x61, 0x17, 0x3e,
     0xcc, 0xc5, 0x12, 0x3d, 0xe7, 0x0b, 0x13, 0xbe, 0x69, 0xb9, 0xa0, 0xbe,
     0xd5, 0x38, 0xb0, 0xbd, 0x86, 0x90, 0x9a, 0xbe, 0x1d, 0xcf, 0x49, 0xbe,
     0x05, 0xc8, 0xf5, 0xbd, 0x20, 0x4d, 0x40, 0xbc, 0x7a, 0x21, 0x96, 0x3e,
     0x00, 0x76, 0xc9, 0x36, 0xf3, 0xb3, 0x9d, 0xbe, 0x0f, 0xff, 0x96, 0x3c,
     0xc8, 0x1b, 0x09, 0x3e, 0xa7, 0x41, 0xb8, 0x3c, 0xf7, 0x4b, 0x93, 0xbe,
     0x7f, 0xcf, 0x93, 0x3e, 0xc0, 0xb1, 0x0d, 0xbe, 0x6a, 0x22, 0x62, 0x3d,
     0xf1, 0x48, 0x30, 0x3e, 0x74, 0x2e, 0xc4, 0xbe, 0x6d, 0x94, 0xae, 0xbe,
     0x52, 0xc1, 0xb8, 0x3d, 0x1a, 0xf7, 0xc5, 0x3e, 0xb6, 0x3c, 0xb9, 0xbe,
     0x12, 0xe9, 0x0a, 0xbe, 0xa2, 0xb8, 0xf4, 0xbd, 0x47, 0xe8, 0x8e, 0x3e,
     0x7f, 0x7f, 0x74, 0x3e, 0x1b, 0x37, 0x98, 0xbe, 0x1b, 0xa0, 0x8a, 0xbe,
     0xac, 0xb5, 0x3b, 0xbe, 0xcf, 0x34, 0x74, 0xbe, 0x6a, 0x07, 0x3b, 0xbe,
     0x74, 0xf2, 0x01, 0x3e, 0x68, 0xe5, 0x28, 0x3e, 0xf7, 0x6b, 0x11, 0x3e,
     0x45, 0x88, 0x9c, 0xbe, 0xaf, 0x35, 0x2b, 0xbe, 0xd0, 0xb2, 0x83, 0xbe,
     0xfe, 0x47, 0xf0, 0x3d, 0x78, 0x93, 0x99, 0x3e, 0xcd, 0x26, 0x06, 0xbe,
     0xe2, 0x42, 0x10, 0xbe, 0xd4, 0x77, 0x15, 0x3e, 0x04, 0x39, 0x84, 0x3e,
     0xb6, 0xcd, 0x30, 0xbe, 0xe0, 0xdc, 0x67, 0xbd, 0xa0, 0xad, 0x56, 0xbc,
     0x30, 0x03, 0xd1, 0x3d, 0x97, 0x7e, 0x91, 0x3e, 0x04, 0x8f, 0xe5, 0xbd,
     0x54, 0x9d, 0x1e, 0x3e, 0x80, 0xd0, 0xc4, 0xbc, 0x2a, 0xc2, 0x88, 0xbe,
     0x7e, 0x6c, 0x48, 0x3e, 0x20, 0x4d, 0xd8, 0xbd, 0xfc, 0x3e, 0x67, 0xbe,
     0x22, 0x7f, 0x52, 0x3e, 0xc0, 0x7a, 0xa1, 0xbb, 0x80, 0xaf, 0x76, 0x3c,
     0x4c, 0x4a, 0xe3, 0x3d, 0xce, 0xd1, 0x7d, 0x3e, 0x3c, 0x21, 0x04, 0x3e,
     0x09, 0xa2, 0x83, 0xbe, 0x40, 0x23, 0x5a, 0x3d, 0xcd, 0x21, 0x8b, 0xbe,
     0x60, 0x69, 0x0b, 0x3d, 0xa0, 0x7a, 0x88, 0x3c, 0xae, 0x37, 0x6d, 0x3e,
     0x5d, 0x4d, 0x80, 0xbe, 0xee, 0xf6, 0x56, 0xbe, 0xdc, 0xcf, 0x88, 0xbe,
     0x98, 0x61, 0xe3, 0x3d, 0x10, 0x6c, 0xba, 0xbd, 0xb4, 0xdb, 0xe4, 0xbd,
     0x30, 0x68, 0xd1, 0x3d, 0x0a, 0x88, 0x57, 0x3e, 0xbe, 0xc5, 0x4e, 0x3e,
     0x54, 0xf5, 0x84, 0xbe, 0x33, 0xb6, 0x52, 0x3c, 0x34, 0x98, 0xa9, 0x3c,
     0xd8, 0xda, 0xdb, 0xbd, 0xf0, 0x45, 0x2e, 0x3e, 0x56, 0x73, 0x09, 0xbb,
     0x3c, 0x17, 0x71, 0x3e, 0xd6, 0x37, 0xc3, 0x3d, 0x02, 0x98, 0xab, 0xbd,
     0x0a, 0x78, 0x23, 0xbe, 0x94, 0x41, 0x22, 0xbe, 0x3f, 0xc0, 0x0a, 0xbe,
     0x53, 0xad, 0x70, 0x3e, 0x49, 0x8f, 0x80, 0x3e, 0x69, 0x6d, 0x57, 0xbe,
     0x76, 0xb4, 0x31, 0x3e, 0xfa, 0x98, 0xc4, 0x3d, 0x93, 0xa3, 0x95, 0xbd,
     0xa2, 0x52, 0x3a, 0x3e, 0x3c, 0x28, 0xd9, 0xbd, 0x7e, 0x04, 0x9b, 0xbe,
     0x8a, 0xb2, 0xeb, 0xbc, 0xb3, 0x26, 0x6d, 0xbe, 0xc1, 0x3b, 0x90, 0x3e,
     0x13, 0x83, 0x3e, 0xbd, 0xc6, 0x8f, 0x89, 0x3e, 0xf7, 0x74, 0xa0, 0xbe,
     0xca, 0xaa, 0xb5, 0x3d, 0x0d, 0x09, 0x68, 0x3e, 0x96, 0x27, 0x9f, 0xbd,
     0x1a, 0x28, 0x8d, 0x3d, 0x88, 0x55, 0x38, 0xbd, 0xb5, 0xa5, 0x59, 0x3e,
     0xee, 0xfc, 0x51, 0xbe, 0xda, 0x8f, 0x43, 0x3e, 0xe4, 0x12, 0xbf, 0x3d,
     0xa1, 0xe3, 0x6d, 0x3c, 0xb1, 0x7a, 0x11, 0xbe, 0x1a, 0xa4, 0x2f, 0x3c,
     0x88, 0xb7, 0x60, 0xbe, 0xae, 0x13, 0x86, 0x3d, 0xae, 0x4f, 0x75, 0xbe,
     0x91, 0xe2, 0x8c, 0xbd, 0x54, 0x3b, 0xb6, 0xbd, 0x81, 0x34, 0x98, 0xbe,
     0x66, 0xae, 0x9b, 0x3e, 0x81, 0x55, 0x30, 0x3e, 0x7f, 0xda, 0xef, 0x3d,
     0x83, 0x8c, 0x5f, 0x3e, 0x42, 0x38, 0x39, 0x3e, 0x5d, 0xb2, 0x82, 0xbe,
     0xc3, 0xf7, 0x11, 0x3d, 0x05, 0x34, 0x62, 0x3e, 0xfe, 0x10, 0xaf, 0xbd,
     0xa6, 0x63, 0x26, 0x3e, 0x5b, 0xb9, 0x90, 0x3e, 0xe5, 0x34, 0x57, 0x3e,
     0x4b, 0x7b, 0x8e, 0x3e, 0x9c, 0xf9, 0x5d, 0xbe, 0x24, 0x03, 0xa0, 0x3e,
     0x82, 0x90, 0xda, 0x3c, 0xbe, 0x19, 0x58, 0xbe, 0x90, 0xfa, 0xa3, 0x3e,
     0x6d, 0x39, 0x0e, 0x3d, 0x00, 0xf1, 0x17, 0x3d, 0xb1, 0x53, 0x1f, 0x3e,
     0xfd, 0x52, 0x27, 0xbe, 0x48, 0x31, 0xc8, 0x3c, 0x1e, 0xb2, 0x61, 0xbe,
     0x15, 0x8f, 0xdf, 0xbc, 0xd4, 0x0e, 0x43, 0xbd, 0x1d, 0x8a, 0xfe, 0xbc,
     0xe0, 0xb5, 0x93, 0x3e, 0xee, 0x03, 0xc2, 0xbd, 0x12, 0x56, 0x0a, 0x3d,
     0xa8, 0x3f, 0xaa, 0xbe, 0x71, 0xe2, 0x83, 0xbe, 0x89, 0xbe, 0x89, 0x3e,
     0xae, 0xe6, 0x4d, 0xbe, 0x58, 0x43, 0x9f, 0xbe, 0xac, 0xd7, 0x25, 0xbd,
     0x71, 0x30, 0x3a, 0xbd, 0x9a, 0x14, 0x5f, 0xbe, 0xe9, 0xc6, 0x88, 0x3e,
     0x14, 0x56, 0x80, 0xbe, 0x7f, 0x90, 0x44, 0xbe, 0x24, 0xe3, 0x27, 0xbe,
     0xd9, 0xa1, 0x72, 0xbe, 0x99, 0x94, 0x00, 0x3e, 0x17, 0x78, 0x6f, 0xbe,
     0xbf, 0x17, 0x8b, 0xbd, 0xa6, 0xea, 0x14, 0xbe, 0xf5, 0xe0, 0xcc, 0x3d,
     0x3e, 0x1f, 0x5c, 0x3e, 0x13, 0x67, 0x57, 0x3e, 0x56, 0x5c, 0x95, 0x3e,
     0x9c, 0x72, 0x06, 0x3e, 0x0d, 0x93, 0x62, 0xbc, 0x7b, 0x91, 0x91, 0xbe,
     0x46, 0x2d, 0x0e, 0xbe, 0x2f, 0x46, 0x54, 0xbd, 0xe3, 0x7e, 0x14, 0xbe,
     0x7d, 0xdc, 0x4c, 0x3d, 0x06, 0xbd, 0x55, 0xbd, 0x21, 0xf5, 0x9a, 0x3c,
     0x49, 0x20, 0x77, 0x3e, 0x87, 0x57, 0x04, 0xbe, 0x76, 0x88, 0x88, 0x3e,
     0x14, 0x53, 0x99, 0x3e, 0x27, 0x98, 0xe5, 0x3d, 0xf5, 0xb9, 0xb7, 0xbb,
     0x39, 0x5b, 0x84, 0x3e, 0xf4, 0xe7, 0xde, 0x3d, 0x50, 0x59, 0x48, 0xbe,
     0x64, 0x09, 0xd5, 0xbc, 0xe6, 0xdb, 0x5d, 0x3e, 0xc8, 0x2d, 0x09, 0x3e,
     0x17, 0x55, 0xb2, 0xbd, 0x7e, 0x4d, 0xd2, 0x3d, 0xe0, 0xce, 0x84, 0x3e,
     0xa0, 0x7e, 0x4c, 0xbe, 0xc2, 0x8c, 0xe8, 0xbd, 0x78, 0xfe, 0xdc, 0x3d,
     0x38, 0xdf, 0x4c, 0xbe, 0x39, 0x26, 0x17, 0xbe, 0x9c, 0x4e, 0x66, 0xbe,
     0x41, 0x83, 0x57, 0x3e, 0x8a, 0x0a, 0x32, 0xbe, 0x2f, 0xca, 0x1e, 0xbe,
     0x94, 0xe8, 0x24, 0x3e, 0x77, 0xc7, 0x02, 0x3e, 0x42, 0x8c, 0x86, 0x3e,
     0x32, 0xa0, 0x20, 0x3d, 0x15, 0x81, 0x28, 0xbe, 0xca, 0x92, 0x56, 0x3e,
     0x48, 0xf7, 0x9f, 0x3e, 0x91, 0xe3, 0x51, 0x3d, 0xc9, 0xcc, 0x88, 0xbd,
     0x45, 0x48, 0x98, 0x3d, 0x25, 0xeb, 0x81, 0x3d, 0x4f, 0x34, 0x58, 0xbe,
     0x89, 0xba, 0xcc, 0xbd, 0x17, 0xa6, 0x86, 0xbd, 0x2c, 0x0d, 0x88, 0xbd,
     0x64, 0xb4, 0x0a, 0xbe, 0x7b, 0x2b, 0x1a, 0xbe, 0xb8, 0x30, 0x6d, 0xbd,
     0xb5, 0x32, 0xdb, 0xbd, 0xab, 0x02, 0x31, 0x3e, 0xf2, 0xc2, 0x3e, 0x3c,
     0xd9, 0x48, 0x74, 0xbe, 0xb9, 0x72, 0x9e, 0x3e, 0x38, 0xe2, 0x0b, 0x3e,
     0x06, 0xfc, 0xbd, 0xbc, 0x3c, 0x4a, 0x7e, 0x3e, 0xca, 0x9b, 0x77, 0xbe,
     0x83, 0x58, 0xe3, 0xbd, 0x7a, 0x9a, 0x98, 0x3d, 0x89, 0x3e, 0x06, 0xbe,
     0xaa, 0x2d, 0x9a, 0x3e, 0x0b, 0x49, 0xd4, 0xbd, 0xf8, 0x8c, 0x03, 0x3d,
     0x7d, 0x88, 0x8e, 0x3e, 0x98, 0x43, 0x8a, 0x3d, 0xbd, 0x5c, 0x9a, 0xbe,
     0xb9, 0x3e, 0x86, 0x3e, 0x55, 0xb1, 0x9b, 0xbe, 0xf1, 0x32, 0x2d, 0xbe,
     0x24, 0x0f, 0x74, 0xbd, 0x70, 0xa7, 0x3a, 0x3d, 0x06, 0xdd, 0xde, 0xbd,
     0xce, 0x63, 0x7d, 0x3e, 0x36, 0x31, 0x55, 0x3e, 0x7c, 0x4a, 0xdf, 0xbd,
     0xc4, 0x92, 0x11, 0x3e, 0x9f, 0xae, 0x5b, 0xbe, 0xff, 0x2f, 0x78, 0xbe,
     0x40, 0x92, 0x72, 0x3c, 0xe0, 0xbe, 0x9a, 0x3d, 0x77, 0x22, 0x94, 0xbe,
     0x18, 0x0b, 0x8a, 0xbd, 0xb0, 0xcc, 0xe8, 0xbc, 0xe6, 0x7e, 0x7c, 0x3e,
     0x32, 0xc9, 0xbf, 0xbd, 0xe2, 0xbf, 0xd5, 0xbd, 0xc8, 0x70, 0xd6, 0x3d,
     0x69, 0x76, 0x80, 0x3e, 0x18, 0x14, 0x96, 0xbe, 0x7e, 0x5d, 0x11, 0xbe,
     0x56, 0x72, 0x64, 0xbe, 0x56, 0x2e, 0x1c, 0x3e, 0xc0, 0xbe, 0xf5, 0x3b,
     0xfd, 0x6d, 0x8e, 0x3e, 0x88, 0x6a, 0xca, 0xbb, 0xb3, 0xb6, 0xe8, 0xbd,
     0x96, 0x51, 0xb7, 0xbd, 0x79, 0x04, 0xbb, 0x3d, 0x9d, 0xe3, 0x76, 0xbe,
     0xc8, 0x55, 0x4f, 0xbe, 0x2f, 0x5a, 0xa4, 0x3e, 0x97, 0x58, 0xf6, 0x3c,
     0x73, 0x5e, 0xc9, 0xbe, 0x3b, 0x29, 0x6f, 0x3e, 0xd0, 0x45, 0xbc, 0xbe,
     0xa0, 0x05, 0x32, 0x3e, 0xab, 0xda, 0x20, 0xbd, 0xe7, 0xa3, 0x09, 0x3e,
     0x69, 0x0e, 0xaa, 0xbe, 0xb4, 0x12, 0x84, 0xbe, 0x8a, 0x83, 0xdf, 0x3d,
     0xd3, 0x4c, 0x71, 0xbe, 0x4c, 0xf0, 0x89, 0x3e, 0xe9, 0xbb, 0x3c, 0xbe,
     0xc9, 0x00, 0x3f, 0xbe, 0x0d, 0xd4, 0x34, 0xbe, 0x76, 0xaf, 0x4a, 0x3c,
     0x5e, 0x9b, 0x73, 0xbd, 0x9c, 0x4c, 0x45, 0x3e, 0x24, 0x23, 0x4b, 0xbe,
     0x7e, 0x77, 0x75, 0x3e, 0x89, 0x3f, 0xb1, 0x3b, 0x55, 0x01, 0x3f, 0x3e,
     0x9b, 0x50, 0x69, 0xbe, 0x96, 0xaf, 0x04, 0x3e, 0xea, 0xd2, 0x9d, 0x3d,
     0x55, 0x01, 0xea, 0xbd, 0xa8, 0x73, 0xed, 0x3d, 0x5b, 0x71, 0x91, 0xbe,
     0xe7, 0x35, 0xf8, 0xbb, 0xc0, 0x80, 0x8a, 0xbe, 0x75, 0xbf, 0x80, 0x3e,
     0x8e, 0x27, 0x82, 0x3e, 0x58, 0x8c, 0x94, 0xbe, 0xe0, 0x22, 0x95, 0x3e,
     0x89, 0x00, 0x5d, 0xbe, 0xa6, 0xbb, 0x68, 0x3e, 0x47, 0x3d, 0x93, 0xbe,
     0x07, 0xf4, 0x1a, 0xbc, 0x26, 0xfc, 0xd8, 0x3d, 0xaa, 0x8e, 0x1d, 0xbd,
     0x3d, 0xe2, 0x57, 0xbe, 0x6f, 0x5f, 0x73, 0x3e, 0x09, 0x61, 0x0c, 0x3e,
     0x3f, 0x21, 0x23, 0x3d, 0x29, 0x06, 0xd2, 0x3d, 0x33, 0x54, 0x89, 0xbe,
     0x00, 0x7f, 0x14, 0x3d, 0x0e, 0x6a, 0xd6, 0x3d, 0xb4, 0x3d, 0x88, 0xbe,
     0x40, 0x42, 0xe7, 0xbb, 0xa5, 0xc7, 0x9d, 0xbd, 0xbc, 0x61, 0x0c, 0xbe,
     0xde, 0x64, 0x55, 0xbe, 0xf3, 0xd1, 0x35, 0xbe, 0xfe, 0x46, 0xed, 0x3d,
     0x69, 0x9f, 0x93, 0xbe, 0xce, 0x3b, 0xd9, 0xbd, 0x4f, 0x44, 0xf8, 0x3d,
     0x2e, 0xa0, 0x70, 0x3e, 0x40, 0xe4, 0xad, 0xbc, 0xf1, 0x93, 0xad, 0x3e,
     0xc7, 0x57, 0x2f, 0x3e, 0x58, 0x16, 0x5d, 0x3e, 0x6d, 0xfd, 0x7f, 0xbe,
     0x19, 0x16, 0x68, 0xbd, 0xa6, 0xee, 0x55, 0x3e, 0x36, 0x29, 0x69, 0x3d,
     0xd5, 0xba, 0x68, 0xbe, 0xf4, 0xa9, 0xa3, 0x3d, 0x14, 0x98, 0x2d, 0xbe,
     0x45, 0x94, 0x92, 0x3e, 0x9c, 0xeb, 0x27, 0x3e, 0x24, 0x34, 0x80, 0x3e,
     0xb0, 0x30, 0x89, 0xbe, 0xd5, 0x58, 0x22, 0xbe, 0xaa, 0x6b, 0x58, 0xbb,
     0xf4, 0xd7, 0x5a, 0x3e, 0xa2, 0x7c, 0x21, 0xbe, 0xfa, 0xc7, 0x64, 0x3e,
     0x81, 0x31, 0x8a, 0xbe, 0x16, 0xb0, 0x6a, 0x3e, 0xb3, 0x22, 0x22, 0xbe,
     0xf7, 0x9c, 0x6b, 0xbe, 0x96, 0x46, 0xb8, 0xbc, 0xee, 0xb8, 0x04, 0x3e,
     0xa8, 0x97, 0x39, 0x3e, 0xd2, 0xed, 0x8d, 0x3e, 0x54, 0x33, 0xf6, 0xbb,
     0x2e, 0x42, 0x8b, 0xbd, 0x75, 0x9c, 0x28, 0x3e, 0x7c, 0xc0, 0x36, 0xbd,
     0x95, 0xf0, 0x21, 0xbe, 0x12, 0xfe, 0x21, 0xbe, 0xb7, 0xb3, 0xda, 0x3d,
     0xda, 0x7e, 0x5a, 0xbe, 0x38, 0x41, 0x39, 0x3e, 0x68, 0x5c, 0xdb, 0xbd,
     0x84, 0x37, 0x98, 0x3e, 0x21, 0xe4, 0xd7, 0xbc, 0x91, 0xd6, 0x42, 0xbe,
     0x5e, 0x47, 0x96, 0xbe, 0x70, 0x06, 0x05, 0x3e, 0x83, 0x78, 0x62, 0xbe,
     0xf9, 0xa4, 0x6e, 0x3e, 0x7c, 0xb5, 0x7e, 0x3e, 0xfb, 0x7a, 0x3b, 0x3d,
     0x95, 0xa0, 0x9c, 0x3e, 0x0c, 0xef, 0x0a, 0x3e, 0xc2, 0xab, 0x8c, 0x3d,
     0xc7, 0x9e, 0x68, 0x3e, 0x93, 0x98, 0x3c, 0xbe, 0xd5, 0xd6, 0x9a, 0x3e,
     0x28, 0x47, 0x50, 0x3e, 0x0d, 0xac, 0xb8, 0xbd, 0xb1, 0x32, 0x9f, 0x3e,
     0x39, 0xa9, 0xb6, 0x3b, 0xc6, 0x70, 0xd0, 0xbd, 0x4e, 0xf5, 0x42, 0x3e,
     0xaa, 0x0e, 0x2a, 0x3e, 0xbe, 0xa0, 0x68, 0x3e, 0x6d, 0xdf, 0x16, 0x3d,
     0xfe, 0x46, 0x75, 0x3e, 0xb9, 0xec, 0x60, 0xbe, 0x9d, 0xb6, 0x64, 0xbc,
     0x40, 0x9e, 0x9a, 0x3d, 0x85, 0xca, 0x97, 0x3d, 0x3f, 0x10, 0x18, 0xbd,
     0x24, 0x48, 0x3f, 0xbe, 0x5e, 0x16, 0x1a, 0xbe, 0xd4, 0x48, 0x07, 0xbd,
     0x2f, 0xa3, 0x1b, 0x3e, 0xc6, 0x42, 0x64, 0xbe, 0x21, 0x47, 0xc3, 0x3d,
     0x42, 0xde, 0x12, 0x3d, 0x64, 0x02, 0x5c, 0x3e, 0xfc, 0x77, 0xa4, 0x3e,
     0xd3, 0x36, 0x9c, 0xbe, 0xfb, 0x4b, 0x0a, 0x3d, 0x7f, 0xc8, 0x15, 0x3e,
     0xaf, 0xc5, 0x67, 0xbe, 0x18, 0xea, 0x88, 0x3e, 0xa6, 0x8d, 0x6f, 0x3e,
     0xda, 0x75, 0xe3, 0xbd, 0x6e, 0x02, 0x04, 0x3e, 0x41, 0x02, 0x75, 0xbe,
     0x1d, 0xd0, 0x77, 0x3e, 0x6b, 0x87, 0x64, 0x3e, 0xe2, 0xf3, 0x41, 0x3e,
     0x8f, 0x37, 0x9c, 0xbe, 0xf9, 0x17, 0x6b, 0xbd, 0xd4, 0xbc, 0xdc, 0x3d,
     0x43, 0xf6, 0x86, 0x3e, 0x2c, 0x41, 0x0d, 0x3d, 0xba, 0x73, 0x24, 0x3e,
     0xac, 0xed, 0xbf, 0x3d, 0xd0, 0x16, 0x3a, 0xbd, 0xc0, 0x9f, 0x87, 0x3d,
     0x3c, 0x54, 0x9a, 0xbe, 0x3b, 0x8d, 0x01, 0xbe, 0xb3, 0xb7, 0x8c, 0x3e,
     0xb0, 0x94, 0xc2, 0xbc, 0xd6, 0x27, 0xda, 0xbd, 0x38, 0x63, 0xd5, 0xbd,
     0x60, 0x54, 0xf8, 0x3c, 0xbc, 0xe4, 0x17, 0x3e, 0x17, 0x36, 0x0f, 0xbe,
     0x88, 0xd6, 0x28, 0xbe, 0x2e, 0xb0, 0x26, 0xbe, 0x88, 0x10, 0xc0, 0xbd,
     0xa5, 0xc5, 0x8f, 0x3e, 0x08, 0x9e, 0x9a, 0xbd, 0x90, 0xe4, 0x64, 0xbe,
     0xb8, 0x80, 0x26, 0xbd, 0x78, 0x20, 0xa2, 0x3d, 0xd2, 0xd5, 0x8d, 0xbd,
     0xed, 0x21, 0x38, 0xbe, 0x9e, 0x1b, 0x50, 0x3e, 0xe0, 0xd8, 0x0c, 0x3e,
     0x67, 0xa9, 0x9a, 0xbe, 0x7a, 0xfb, 0x78, 0xbe, 0x00, 0x46, 0x2b, 0xbb,
     0x90, 0x36, 0x1a, 0xbe, 0x94, 0x1d, 0xc0, 0x3d, 0xfc, 0xe4, 0x89, 0xbe,
     0x2e, 0x28, 0x21, 0x3e, 0x70, 0x85, 0xa3, 0xbd, 0x1e, 0xb3, 0x7b, 0x3e,
     0x76, 0x78, 0x9b, 0xbe, 0x25, 0x8e, 0x91, 0x3e, 0xb1, 0x35, 0x1f, 0xbe,
     0x40, 0x40, 0x63, 0xbc, 0x8a, 0x23, 0x01, 0xbe, 0x7c, 0xf9, 0xc6, 0x3d,
     0x27, 0xb3, 0x83, 0xbe, 0x80, 0xd7, 0x94, 0xbe, 0x22, 0xe0, 0x5a, 0x3e,
     0xb2, 0xe6, 0xed, 0xbd, 0x00, 0x85, 0x7d, 0xbd, 0x80, 0xbd, 0x44, 0x3c,
     0x06, 0x0a, 0x1d, 0x3e, 0x0c, 0x22, 0x16, 0x3e, 0xcc, 0x8f, 0x8f, 0x3d,
     0x51, 0xc3, 0x8c, 0xbe, 0x2d, 0x9f, 0x82, 0x3e, 0xec, 0x9f, 0xf8, 0x3d,
     0xa6, 0x9d, 0xfe, 0xbd, 0x32, 0xbc, 0x65, 0x3e, 0x6a, 0x1a, 0x65, 0xbe,
     0x57, 0xd3, 0x81, 0x3e, 0x54, 0x03, 0x27, 0x3e, 0x50, 0x00, 0xc3, 0x3c,
     0xb1, 0x05, 0x95, 0x3e, 0x6d, 0x40, 0x9a, 0xbe, 0x64, 0x2a, 0xa8, 0x3d,
     0xd4, 0xb7, 0x6a, 0xbd, 0xe2, 0x8c, 0x94, 0xbe, 0x3b, 0xdb, 0x91, 0xbe,
     0xaf, 0x57, 0x83, 0xbe, 0x7a, 0x24, 0x3d, 0xbe, 0x03, 0xc1, 0x2c, 0xbb,
     0xd8, 0x72, 0xb7, 0x3d, 0x6f, 0x8a, 0x8c, 0x3e, 0x2f, 0xcc, 0x6b, 0xbe,
     0x8d, 0xac, 0x92, 0x3e, 0x11, 0xa1, 0xca, 0x3c, 0xe6, 0xc5, 0x5c, 0x3e,
     0x8c, 0xad, 0x11, 0xbe, 0x7e, 0x72, 0x8d, 0xbe, 0xe7, 0xb2, 0x40, 0xbe,
     0xac, 0x7c, 0x90, 0x3e, 0x7e, 0x9a, 0x5d, 0xbe, 0xa0, 0xda, 0x1a, 0x3d,
     0x8f, 0xa3, 0x89, 0xbe, 0x6c, 0xf9, 0x4c, 0x3a, 0x4b, 0x35, 0xc2, 0xbd,
     0x4d, 0xcd, 0x1d, 0xbe, 0x31, 0x7d, 0x31, 0xbe, 0x97, 0xc7, 0x87, 0x3d,
     0x54, 0x00, 0xa0, 0x3e, 0x0a, 0xae, 0xbc, 0xbd, 0x15, 0x15, 0x17, 0xbe,
     0x6b, 0xdf, 0x73, 0x3e, 0x7e, 0xe1, 0x4d, 0x3e, 0xa1, 0x40, 0xa0, 0x3a,
     0x0e, 0x42, 0x5f, 0xbe, 0xa1, 0x1d, 0x91, 0x3d, 0xa5, 0xd0, 0x48, 0xbe,
     0xa0, 0x3d, 0x3f, 0xbc, 0xcb, 0x8b, 0x08, 0x3d, 0x20, 0xb4, 0xe1, 0x3d,
     0xc0, 0x5b, 0x94, 0x3a, 0x54, 0xac, 0xa1, 0xbd, 0x7e, 0x07, 0xb6, 0xbe,
     0xdf, 0x50, 0xad, 0xbb, 0x4d, 0xdc, 0x31, 0x3c, 0xb1, 0xfe, 0x34, 0x3d,
     0xc0, 0xa9, 0xc7, 0x3d, 0x04, 0xf9, 0xa0, 0xbe, 0x2b, 0xd4, 0x58, 0x3e,
     0x14, 0xb5, 0xc4, 0xbd, 0x2d, 0x7e, 0xe9, 0xbc, 0x7a, 0xf3, 0xab, 0x3e,
     0x08, 0x0f, 0xd2, 0xbe, 0x46, 0x2b, 0xee, 0xbe, 0xaa, 0x90, 0xa0, 0xbd,
     0xce, 0x01, 0xe3, 0xbc, 0xf9, 0x8f, 0xba, 0xbe, 0x75, 0x4a, 0x53, 0x3e,
     0x8f, 0xa5, 0xc4, 0x3c, 0x21, 0x3b, 0x95, 0xbe, 0xa1, 0xd5, 0x97, 0xbe,
     0x4d, 0xdf, 0xa5, 0xbd, 0x53, 0x3a, 0x14, 0x3e, 0x31, 0xc8, 0x9c, 0xbe,
     0xd6, 0x73, 0x65, 0x3e, 0x4a, 0x00, 0x6f, 0xbc, 0x1e, 0xc2, 0x51, 0x3e,
     0x27, 0x59, 0xa1, 0x3c, 0x25, 0xd7, 0xe1, 0xbc, 0x90, 0x92, 0xcf, 0xbd,
     0x8d, 0xec, 0x50, 0xbe, 0x18, 0x89, 0x1d, 0x3e, 0xdd, 0x57, 0xf0, 0x3d,
     0x6e, 0x7e, 0x37, 0x3e, 0x58, 0x5e, 0xe5, 0xbc, 0x4a, 0xd3, 0x52, 0x3c,
     0xba, 0xc4, 0x22, 0x3d, 0x38, 0x70, 0x2d, 0xbe, 0xfa, 0x7c, 0xc4, 0x3d,
     0x0e, 0x9e, 0x03, 0xbe, 0x8a, 0xa2, 0xf6, 0x3d, 0x20, 0xb2, 0x90, 0x3e,
     0x15, 0x0a, 0x8a, 0x3d, 0xa5, 0x54, 0xe4, 0x3d, 0x38, 0xac, 0xea, 0x3d,
     0x72, 0x36, 0x21, 0x3e, 0x7d, 0x38, 0x6e, 0xbc, 0x06, 0xb6, 0xeb, 0x3d,
     0x56, 0xd4, 0x79, 0xbc, 0xec, 0x5c, 0x3f, 0x3e, 0x7f, 0xd7, 0xa4, 0x3d,
     0x8b, 0xa1, 0x81, 0x3e, 0x00, 0x72, 0x34, 0x3e, 0x60, 0x78, 0xa2, 0xbe,
     0x9b, 0xe2, 0x97, 0x3e, 0x6c, 0x9f, 0x0d, 0xbe, 0x47, 0x1b, 0x8a, 0x3d,
     0x93, 0xa2, 0x76, 0x3c, 0xd4, 0xf9, 0x01, 0x3e, 0x35, 0x2a, 0x2f, 0xbe,
     0x07, 0x11, 0x3c, 0xbe, 0xb3, 0x40, 0xde, 0x3d, 0x33, 0xbe, 0x54, 0x3e,
     0x34, 0xeb, 0xb4, 0x3d, 0x00, 0x9c, 0xdd, 0x3b, 0x2c, 0x39, 0xb8, 0x3d,
     0x32, 0xe9, 0xdb, 0xbd, 0x6a, 0x52, 0xad, 0xbc, 0x46, 0x55, 0x65, 0x3c,
     0x5d, 0xa8, 0x7e, 0xbd, 0x82, 0xd8, 0x06, 0x3e, 0x4b, 0x96, 0x80, 0x3e,
     0x0a, 0xce, 0x63, 0xbc, 0x19, 0x83, 0x97, 0xbe, 0x89, 0x17, 0x6a, 0xbe,
     0xb8, 0x20, 0x7b, 0xbe, 0xaa, 0xe6, 0x3f, 0xbe, 0xec, 0xb7, 0xec, 0x3d,
     0x49, 0x97, 0x17, 0x3e, 0x2b, 0x2e, 0x19, 0xbe, 0xe9, 0xa9, 0x26, 0x3e,
     0x07, 0xc0, 0x7c, 0x3e, 0x2e, 0x0c, 0x8f, 0xbe, 0x30, 0xb6, 0x87, 0xbc,
     0xf0, 0x3a, 0x29, 0x3e, 0x62, 0xf8, 0x8b, 0xbe, 0xe0, 0x2f, 0x14, 0xbd,
     0x22, 0xc3, 0xa7, 0xbd, 0x3d, 0x5e, 0xe6, 0xbd, 0x42, 0x24, 0x96, 0x3e,
     0xb6, 0xc2, 0x3a, 0x3e, 0xb6, 0xd2, 0x3a, 0xbe, 0xe2, 0x0a, 0x08, 0x3e,
     0x66, 0x7d, 0x3b, 0xbe, 0xf2, 0x45, 0xe1, 0xbd, 0x1a, 0x2f, 0x34, 0xbe,
     0xad, 0xfa, 0x47, 0xbc, 0x14, 0xa2, 0x9c, 0xbd, 0x89, 0x4a, 0x80, 0xbd,
     0x14, 0xf3, 0x85, 0xbe, 0x89, 0x46, 0xc2, 0xbd, 0xdc, 0xf2, 0xcf, 0xbd,
     0x4d, 0x53, 0x64, 0xbd, 0x84, 0xf4, 0x58, 0x3e, 0xb7, 0xc0, 0x1e, 0x3e,
     0xe6, 0xef, 0xf2, 0xbd, 0x4d, 0x71, 0x55, 0xbe, 0x59, 0xdc, 0x4a, 0x3e,
     0xfd, 0x15, 0x52, 0xbe, 0x0a, 0xad, 0x4d, 0x3e, 0xa2, 0x80, 0x8d, 0x3e,
     0xdc, 0xdc, 0x67, 0xbe, 0x29, 0x22, 0xae, 0x3d, 0x54, 0x38, 0xd8, 0xbd,
     0xd2, 0x5d, 0x4d, 0x3e, 0x5b, 0x44, 0x80, 0xbd, 0xdb, 0xe2, 0x8a, 0x3e,
     0x63, 0x23, 0x96, 0x3e, 0xb8, 0x3e, 0x5b, 0xbe, 0x71, 0x65, 0x98, 0xbe,
     0x23, 0x35, 0x0b, 0x3d, 0xa6, 0xba, 0x82, 0x3e, 0xea, 0x3a, 0xba, 0xbd,
     0xa5, 0xb7, 0x3a, 0x3e, 0xdf, 0xc6, 0xb6, 0xbd, 0x4a, 0x21, 0xab, 0x3d,
     0x54, 0x69, 0xef, 0x3d, 0x69, 0xb4, 0x03, 0x3e, 0xb2, 0xfd, 0x3f, 0x3e,
     0x96, 0x14, 0x70, 0x3e, 0x79, 0x62, 0x0f, 0xbe, 0x1b, 0xf5, 0x34, 0x3d,
     0xc1, 0xa9, 0x92, 0xbe, 0x72, 0xdd, 0xa2, 0x3e, 0xce, 0x4f, 0xab, 0x3e,
     0xd9, 0x33, 0xfd, 0x3d, 0x01, 0xf3, 0x89, 0x3e, 0xef, 0x55, 0xc4, 0x3d,
     0x6b, 0x05, 0x0a, 0xbc, 0x2a, 0x06, 0xb9, 0x3e, 0x93, 0x29, 0xe1, 0xbe,
     0x11, 0x8e, 0x6b, 0xbe, 0x23, 0x27, 0x13, 0x3e, 0xe0, 0xa6, 0x92, 0xbe,
     0x99, 0xe6, 0xb5, 0xbe, 0x69, 0xd4, 0xc7, 0xbd, 0xe7, 0x13, 0x9e, 0xbe,
     0xbb, 0xe6, 0x76, 0xbe, 0x99, 0x01, 0x85, 0x3e, 0xa0, 0x55, 0x21, 0x3e,
     0xd5, 0xd7, 0xc0, 0x3d, 0x7a, 0x49, 0x41, 0x3e, 0x55, 0xff, 0x23, 0xbe,
     0xa1, 0x83, 0x56, 0xbe, 0xaf, 0xaa, 0x90, 0x3e, 0xb5, 0x88, 0xcd, 0x3d,
     0xd1, 0xf9, 0x5e, 0x3c, 0x4e, 0x8b, 0xf4, 0xbd, 0x79, 0x57, 0x9c, 0xbd,
     0x56, 0x60, 0xa8, 0x3d, 0x24, 0x63, 0xc1, 0xbd, 0x84, 0xae, 0x5e, 0xbe,
     0x6a, 0xe2, 0xcc, 0xbd, 0xe2, 0x95, 0xc9, 0xbe, 0xf9, 0x01, 0x18, 0xbe,
     0xac, 0x7c, 0x1b, 0xbd, 0x92, 0x87, 0x80, 0x3d, 0xdf, 0x9c, 0xe7, 0xbd,
     0x16, 0xef, 0x5f, 0x3e, 0x5f, 0x1f, 0x83, 0xbe, 0x3b, 0x90, 0x77, 0x3c,
     0x65, 0x05, 0xb4, 0x3e, 0x27, 0xe3, 0x76, 0xbe, 0x55, 0x5b, 0xea, 0xbe,
     0x39, 0xfc, 0x43, 0x3d, 0xfa, 0x5c, 0x35, 0xbe, 0xa5, 0x22, 0xf8, 0xbd,
     0xe5, 0x50, 0xf0, 0x3d, 0xaa, 0xaa, 0x8f, 0xbd, 0x3d, 0xda, 0x99, 0xbe,
     0x62, 0x4f, 0xe8, 0xbc, 0x57, 0x1c, 0xf1, 0x3d, 0x6c, 0x33, 0x18, 0x3c,
     0xd2, 0x3f, 0x47, 0xbe, 0x47, 0x5d, 0x40, 0x3e, 0x0e, 0x3d, 0xb0, 0xbd,
     0xc7, 0x88, 0x9f, 0xbe, 0x68, 0xaa, 0xc5, 0x3d, 0xde, 0x9d, 0x14, 0x3d,
     0x06, 0x92, 0x5a, 0xbe, 0xcb, 0x05, 0x46, 0xbe, 0x9d, 0x86, 0xed, 0x3d,
     0xbd, 0xd9, 0x61, 0xbe, 0x64, 0x5f, 0x6d, 0x3e, 0xcf, 0x8e, 0x6a, 0x3e,
     0xc4, 0x81, 0x79, 0xbe, 0x52, 0x10, 0x3b, 0x3e, 0xce, 0xaf, 0x0f, 0x3e,
     0x33, 0xde, 0x3e, 0x3d, 0x6e, 0xf4, 0x79, 0x3d, 0x2a, 0x39, 0x86, 0x3e,
     0xf0, 0xad, 0x29, 0x3e, 0x14, 0x45, 0x73, 0xbd, 0x3a, 0x31, 0x02, 0x3e,
     0x9c, 0x6a, 0x31, 0x3e, 0xd6, 0x77, 0x8b, 0xbd, 0x60, 0x8c, 0x3c, 0xbe,
     0x8c, 0xa4, 0x68, 0x3e, 0xf4, 0x13, 0x85, 0x3e, 0xe2, 0x1b, 0x43, 0xbe,
     0x10, 0xb7, 0x93, 0xbe, 0x31, 0x47, 0x44, 0x3e, 0x95, 0x2d, 0xcc, 0xbd,
     0x23, 0x3f, 0x4a, 0x3e, 0xcd, 0x85, 0x10, 0xbc, 0x7b, 0x89, 0xab, 0xbd,
     0x16, 0xc9, 0x90, 0x3e, 0xb9, 0xf5, 0x92, 0xbd, 0x13, 0xec, 0x8d, 0x3e,
     0x1d, 0x2f, 0x85, 0xbe, 0xbe, 0xe6, 0xe8, 0xbd, 0x7e, 0x8c, 0x75, 0xbe,
     0xf2, 0xc1, 0x88, 0xbe, 0x59, 0x15, 0xd7, 0x3c, 0x9a, 0x43, 0xf3, 0x3d,
     0x2e, 0x16, 0x91, 0x3e, 0x13, 0x47, 0x40, 0xbe, 0x7e, 0x73, 0x87, 0xbe,
     0x28, 0x8d, 0xc9, 0x3d, 0x3f, 0x57, 0x23, 0x3e, 0x4a, 0x73, 0x4c, 0x3e,
     0xbd, 0x39, 0xa4, 0xbd, 0x48, 0xe9, 0xf8, 0xbd, 0x9b, 0x3b, 0x26, 0x3e,
     0x15, 0x94, 0x96, 0xbe, 0x06, 0x96, 0x38, 0xbc, 0x6b, 0xf2, 0x4f, 0xbe,
     0xdc, 0x30, 0x8b, 0xbe, 0x30, 0xb8, 0xcc, 0xbd, 0xe0, 0x36, 0x54, 0x3e,
     0x3f, 0x7f, 0x93, 0x3e, 0xb9, 0x39, 0x78, 0x3e, 0x47, 0xd8, 0xdc, 0x3d,
     0x62, 0x13, 0x00, 0xbe, 0xb8, 0xd3, 0x22, 0xbe, 0x74, 0x89, 0x42, 0x3e,
     0xb7, 0x1b, 0x84, 0xbe, 0x48, 0xe8, 0x01, 0x3e, 0xcd, 0x8b, 0x0e, 0xbe,
     0xd2, 0xf2, 0x88, 0x3e, 0xb9, 0x89, 0xe4, 0x3d, 0xe2, 0xac, 0xa4, 0xbe,
     0x04, 0x86, 0x62, 0x3d, 0xa0, 0xda, 0x00, 0x3d, 0x87, 0xbe, 0x37, 0xbe,
     0xb9, 0xc7, 0xa4, 0x3d, 0x95, 0x1d, 0x8b, 0xbe, 0x98, 0x1c, 0x4e, 0xbe,
     0x68, 0x2f, 0x41, 0x3e, 0x1c, 0xc9, 0xa4, 0x3e, 0x69, 0x79, 0xff, 0xbd,
     0xfd, 0x8b, 0x42, 0xbe, 0x2b, 0x80, 0xb8, 0xbe, 0xe1, 0xec, 0x2a, 0xbe,
     0xa1, 0x45, 0x4e, 0xbe, 0xfd, 0xf7, 0x71, 0x3e, 0xf0, 0xed, 0x09, 0x3d,
     0xc5, 0xb7, 0x67, 0x3e, 0x9e, 0xdf, 0xa6, 0x3d, 0x58, 0xda, 0xa5, 0x3e,
     0x7e, 0x91, 0x75, 0x3d, 0x23, 0x2e, 0x8e, 0xbe, 0xca, 0xdb, 0x3b, 0x3e,
     0x96, 0x1b, 0x5a, 0xbe, 0xbe, 0xef, 0x88, 0x3e, 0x8c, 0x08, 0x77, 0xbd,
     0xb0, 0x73, 0xa5, 0x3c, 0x68, 0x2a, 0x01, 0x3e, 0x45, 0xdf, 0x86, 0x3e,
     0xb4, 0x11, 0x80, 0xbe, 0x44, 0x7b, 0x7e, 0xba, 0xcb, 0x7c, 0xca, 0x3a,
     0xf6, 0x96, 0x83, 0xbe, 0x72, 0xc4, 0x5e, 0xbd, 0x98, 0x96, 0x09, 0x3e,
     0x70, 0xff, 0x2b, 0x3d, 0xdc, 0xdb, 0x36, 0x3e, 0x80, 0xb2, 0x8a, 0x3d,
     0xd4, 0x33, 0x87, 0x3d, 0x0e, 0xfa, 0x65, 0x3e, 0xba, 0x81, 0x14, 0xbe,
     0xa2, 0x4f, 0x09, 0xbe, 0x73, 0x00, 0x8f, 0x3e, 0x70, 0x0a, 0x80, 0xbc,
     0x30, 0x4d, 0x1c, 0xbd, 0x9b, 0xe1, 0x20, 0xbe, 0x80, 0x8d, 0xa9, 0xbb,
     0x1c, 0xd4, 0x70, 0xbe, 0xc8, 0x0d, 0x4c, 0xbe, 0xe0, 0x53, 0x63, 0x3c,
     0xa4, 0x9c, 0x85, 0xbd, 0xfe, 0xd4, 0x70, 0x3e, 0x86, 0xa0, 0x8f, 0xbd,
     0x50, 0x7b, 0x3b, 0x3d, 0x00, 0xc8, 0xc7, 0xb9, 0x56, 0x3f, 0x76, 0x3e,
     0xf0, 0x8e, 0x88, 0xbc, 0xa0, 0x7b, 0x95, 0x3c, 0x0f, 0x86, 0x89, 0xbe,
     0xe3, 0x0f, 0x82, 0xbe, 0xd4, 0x9c, 0xd2, 0x3d, 0x28, 0x1c, 0x23, 0x3d,
     0x5e, 0x98, 0x27, 0x3e, 0x51, 0x66, 0x96, 0xbe, 0x76, 0xe8, 0x58, 0xbe,
     0xf5, 0x62, 0x78, 0xbe, 0x68, 0x21, 0x62, 0xbd, 0xa2, 0x92, 0xd8, 0xbd,
     0x41, 0xe0, 0x00, 0xbe, 0xba, 0x5e, 0x78, 0xbe, 0x2a, 0x67, 0xdf, 0xbd,
     0xee, 0xf7, 0x60, 0xbc, 0xdf, 0x4c, 0xbb, 0xbd, 0xab, 0xf1, 0x52, 0x3d,
     0x00, 0xc2, 0x0d, 0x3e, 0x78, 0x42, 0xb1, 0x3d, 0xa5, 0x82, 0xc0, 0x3d,
     0xa5, 0xf4, 0xaa, 0xbe, 0xcc, 0x63, 0x98, 0x3e, 0x2f, 0xc5, 0x80, 0x3d,
     0xb9, 0x9d, 0x5d, 0xbd, 0xfe, 0x6e, 0x71, 0x3e, 0x06, 0xfb, 0x79, 0xbc,
     0x6b, 0xbe, 0x2f, 0xbe, 0xf4, 0xd4, 0x99, 0xbd, 0x38, 0x5c, 0x9a, 0x3d,
     0xfa, 0xde, 0x58, 0x3e, 0x6c, 0x13, 0x8a, 0xbd, 0x54, 0xbf, 0x90, 0xbe,
     0x32, 0x77, 0x84, 0x3e, 0xb0, 0x6d, 0x61, 0xbd, 0xef, 0x2d, 0x10, 0xbe,
     0x5f, 0xc5, 0x38, 0xbe, 0xa2, 0x3a, 0x23, 0x3e, 0x1a, 0x0c, 0x9d, 0x3d,
     0xc6, 0xa0, 0x78, 0xbd, 0xed, 0xfd, 0x10, 0xbd, 0x02, 0x7d, 0x4a, 0x3d,
     0x37, 0x70, 0x3e, 0xbe, 0x34, 0xe6, 0x51, 0x3e, 0xc1, 0x16, 0x82, 0xbe,
     0x42, 0x3e, 0xf5, 0x3c, 0xf2, 0xe1, 0xff, 0xbd, 0x67, 0x86, 0x9a, 0xbc,
     0xa7, 0x98, 0x3f, 0x3e, 0xf0, 0xf6, 0x81, 0x3e, 0x2f, 0xf9, 0x7f, 0x3e,
     0x33, 0x02, 0x9c, 0x3e, 0x28, 0x1c, 0x1c, 0x3e, 0x42, 0xd6, 0xbe, 0x3d,
     0x29, 0xcb, 0x13, 0x3e, 0x2b, 0xff, 0xde, 0x3d, 0xee, 0xf7, 0x85, 0xbc,
     0x6a, 0x18, 0xea, 0xbc, 0xf0, 0x57, 0x3d, 0x3e, 0x43, 0xb6, 0x17, 0x3e,
     0x7a, 0x22, 0x88, 0xbe, 0x4a, 0xfe, 0x91, 0x3e, 0xa7, 0xa9, 0x6c, 0x3e,
     0x2d, 0xda, 0x39, 0xbe, 0xa6, 0x7d, 0x84, 0x3d, 0x41, 0x18, 0xa2, 0xbb,
     0xde, 0x4f, 0x80, 0xbd, 0xab, 0xe5, 0xc8, 0xbd, 0x08, 0x4a, 0xab, 0x3d,
     0x88, 0xb9, 0x62, 0x3e, 0xd2, 0x5d, 0x08, 0x3d, 0x78, 0x3f, 0x10, 0xbe,
     0x34, 0x47, 0x8b, 0x3e, 0xaf, 0xcc, 0x93, 0xbd, 0x63, 0x34, 0x4e, 0x3e,
     0xe6, 0x10, 0xd4, 0x3d, 0xc6, 0x9b, 0xbf, 0xbd, 0x72, 0xff, 0xff, 0xff,
     0x04, 0x00, 0x00, 0x00, 0x80, 0x00, 0x00, 0x00, 0xcc, 0x2b, 0x61, 0xbe,
     0x8e, 0x43, 0x93, 0x3e, 0x74, 0x54, 0xa3, 0x3e, 0x0f, 0x38, 0x31, 0x3f,
     0x58, 0x3f, 0xe1, 0x3e, 0x04, 0x64, 0xbd, 0xbe, 0xcc, 0x14, 0xc9, 0x3d,
     0xee, 0x2f, 0xd0, 0xbd, 0xca, 0xa4, 0xe1, 0x3e, 0xa2, 0x8d, 0xbd, 0x3e,
     0x47, 0xd6, 0xa7, 0xbc, 0x6c, 0x70, 0x9a, 0xbe, 0x2e, 0xd6, 0x38, 0x3f,
     0xf4, 0xb9, 0xd3, 0x3e, 0xed, 0x99, 0xdb, 0x3e, 0x92, 0x43, 0x7c, 0xbe,
     0x6c, 0x89, 0x95, 0x3e, 0x3d, 0xfe, 0xba, 0xbe, 0x52, 0xc4, 0x20, 0xbe,
     0x84, 0x9e, 0xb8, 0xbe, 0x3c, 0xdf, 0x11, 0x3f, 0x87, 0x29, 0x6e, 0x3e,
     0x14, 0xfc, 0x42, 0xbe, 0xbb, 0xeb, 0x50, 0xbe, 0x70, 0x42, 0xa4, 0x3e,
     0x07, 0xee, 0xe0, 0x3e, 0xb2, 0xa6, 0x2c, 0xbe, 0xb4, 0xf2, 0xeb, 0x3d,
     0x4a, 0x72, 0x15, 0x3f, 0x9a, 0x77, 0x9b, 0x3e, 0x70, 0x70, 0xc1, 0x3e,
     0x41, 0xfc, 0xab, 0xbe, 0x00, 0x00, 0x06, 0x00, 0x08, 0x00, 0x04, 0x00,
     0x06, 0x00, 0x00, 0x00, 0x04, 0x00, 0x00, 0x00, 0x80, 0x00, 0x00, 0x00,
     0xc0, 0xdf, 0x7d, 0xbc, 0xcd, 0x94, 0x84, 0x3d, 0xa6, 0xee, 0xb9, 0x3d,
     0x13, 0x49, 0x80, 0xbe, 0xe6, 0x93, 0x86, 0xbe, 0x93, 0x96, 0x9e, 0xbe,
     0x12, 0x3e, 0x43, 0x3e, 0x52, 0x01, 0x80, 0x3e, 0xc2, 0x06, 0x52, 0xbe,
     0x0d, 0xf3, 0x7c, 0x3e, 0xb2, 0xac, 0x91, 0xbe, 0xd4, 0x3a, 0xa3, 0x3d,
     0x3e, 0x89, 0x14, 0x3e, 0x80, 0x82, 0x49, 0xbe, 0x02, 0x71, 0x1e, 0xbe,
     0xce, 0xa0, 0x5e, 0xbe, 0x34, 0x41, 0xa8, 0x3d, 0xff, 0x77, 0x99, 0xbe,
     0x9e, 0x67, 0x88, 0x3d, 0xea, 0xed, 0x9f, 0xbe, 0xf4, 0x7d, 0xcd, 0x3d,
     0xd3, 0xf8, 0xd5, 0x3d, 0x2c, 0x91, 0x35, 0xbe, 0xb4, 0x03, 0x87, 0x3d,
     0xd4, 0xcc, 0x56, 0x3d, 0xb6, 0xd9, 0x40, 0x3e, 0xce, 0xa5, 0x9a, 0x3d,
     0x82, 0x2c, 0xaa, 0x3d, 0x7e, 0x0e, 0x1e, 0x3e, 0xd8, 0xd5, 0x0f, 0xbe,
     0x82, 0xab, 0xda, 0x3d, 0xa7, 0xa3, 0x90, 0x3d, 0x80, 0xfa, 0xff, 0xff,
     0x84, 0xfa, 0xff, 0xff, 0x0f, 0x00, 0x00, 0x00, 0x4d, 0x4c, 0x49, 0x52,
     0x20, 0x43, 0x6f, 0x6e, 0x76, 0x65, 0x72, 0x74, 0x65, 0x64, 0x2e, 0x00,
     0x01, 0x00, 0x00, 0x00, 0x14, 0x00, 0x00, 0x00, 0x00, 0x00, 0x0e, 0x00,
     0x18, 0x00, 0x14, 0x00, 0x10, 0x00, 0x0c, 0x00, 0x08, 0x00, 0x04, 0x00,
     0x0e, 0x00, 0x00, 0x00, 0x14, 0x00, 0x00, 0x00, 0x1c, 0x00, 0x00, 0x00,
     0x0c, 0x01, 0x00, 0x00, 0x10, 0x01, 0x00, 0x00, 0x14, 0x01, 0x00, 0x00,
     0x04, 0x00, 0x00, 0x00, 0x6d, 0x61, 0x69, 0x6e, 0x00, 0x00, 0x00, 0x00,
     0x04, 0x00, 0x00, 0x00, 0xc0, 0x00, 0x00, 0x00, 0x70, 0x00, 0x00, 0x00,
     0x38, 0x00, 0x00, 0x00, 0x04, 0x00, 0x00, 0x00, 0x5e, 0xff, 0xff, 0xff,
     0x10, 0x00, 0x00, 0x00, 0x00, 0x00, 0x00, 0x08, 0x0c, 0x00, 0x00, 0x00,
     0x10, 0x00, 0x00, 0x00, 0x00, 0xfb, 0xff, 0xff, 0x01, 0x00, 0x00, 0x00,
     0x0b, 0x00, 0x00, 0x00, 0x03, 0x00, 0x00, 0x00, 0x0a, 0x00, 0x00, 0x00,
     0x02, 0x00, 0x00, 0x00, 0x05, 0x00, 0x00, 0x00, 0x8e, 0xff, 0xff, 0xff,
     0x10, 0x00, 0x00, 0x00, 0x00, 0x00, 0x00, 0x08, 0x10, 0x00, 0x00, 0x00,
     0x14, 0x00, 0x00, 0x00, 0xca, 0xff, 0xff, 0xff, 0x00, 0x00, 0x00, 0x01,
     0x01, 0x00, 0x00, 0x00, 0x0a, 0x00, 0x00, 0x00, 0x03, 0x00, 0x00, 0x00,
     0x09, 0x00, 0x00, 0x00, 0x03, 0x00, 0x00, 0x00, 0x06, 0x00, 0x00, 0x00,
     0xc2, 0xff, 0xff, 0xff, 0x18, 0x00, 0x00, 0x00, 0x00, 0x00, 0x00, 0x08,
     0x18, 0x00, 0x00, 0x00, 0x1c, 0x00, 0x00, 0x00, 0x00, 0x00, 0x06, 0x00,
     0x08, 0x00, 0x07, 0x00, 0x06, 0x00, 0x00, 0x00, 0x00, 0x00, 0x00, 0x01,
     0x01, 0x00, 0x00, 0x00, 0x09, 0x00, 0x00, 0x00, 0x03, 0x00, 0x00, 0x00,
     0x08, 0x00, 0x00, 0x00, 0x04, 0x00, 0x00, 0x00, 0x01, 0x00, 0x00, 0x00,
     0x00, 0x00, 0x0e, 0x00, 0x14, 0x00, 0x00, 0x00, 0x10, 0x00, 0x0c, 0x00,
     0x0b, 0x00, 0x04, 0x00, 0x0e, 0x00, 0x00, 0x00, 0x10, 0x00, 0x00, 0x00,
     0x00, 0x00, 0x00, 0x08, 0x0c, 0x00, 0x00, 0x00, 0x10, 0x00, 0x00, 0x00,
     0xb0, 0xfb, 0xff, 0xff, 0x01, 0x00, 0x00, 0x00, 0x08, 0x00, 0x00, 0x00,
     0x03, 0x00, 0x00, 0x00, 0x00, 0x00, 0x00, 0x00, 0x07, 0x00, 0x00, 0x00,
     0xff, 0xff, 0xff, 0xff, 0x01, 0x00, 0x00, 0x00, 0x0b, 0x00, 0x00, 0x00,
     0x01, 0x00, 0x00, 0x00, 0x00, 0x00, 0x00, 0x00, 0x0c, 0x00, 0x00, 0x00,
     0xf8, 0x03, 0x00, 0x00, 0xa4, 0x03, 0x00, 0x00, 0x4c, 0x03, 0x00, 0x00,
     0x0c, 0x03, 0x00, 0x00, 0xcc, 0x02, 0x00, 0x00, 0x90, 0x02, 0x00, 0x00,
     0x54, 0x02, 0x00, 0x00, 0x08, 0x02, 0x00, 0x00, 0xa8, 0x01, 0x00, 0x00,
     0xf8, 0x00, 0x00, 0x00, 0x60, 0x00, 0x00, 0x00, 0x04, 0x00, 0x00, 0x00,
     0x4e, 0xfc, 0xff, 0xff, 0x00, 0x00, 0x00, 0x01, 0x14, 0x00, 0x00, 0x00,
     0x1c, 0x00, 0x00, 0x00, 0x1c, 0x00, 0x00, 0x00, 0x0c, 0x00, 0x00, 0x00,
     0x34, 0x00, 0x00, 0x00, 0x02, 0x00, 0x00, 0x00, 0xff, 0xff, 0xff, 0xff,
     0x01, 0x00, 0x00, 0x00, 0x38, 0xfc, 0xff, 0xff, 0x1b, 0x00, 0x00, 0x00,
     0x53, 0x74, 0x61, 0x74, 0x65, 0x66, 0x75, 0x6c, 0x50, 0x61, 0x72, 0x74,
     0x69, 0x74, 0x69, 0x6f, 0x6e, 0x65, 0x64, 0x43, 0x61, 0x6c, 0x6c, 0x5f,
     0x31, 0x3a, 0x30, 0x00, 0x02, 0x00, 0x00, 0x00, 0x01, 0x00, 0x00, 0x00,
     0x01, 0x00, 0x00, 0x00, 0xa6, 0xfc, 0xff, 0xff, 0x00, 0x00, 0x00, 0x01,
     0x14, 0x00, 0x00, 0x00, 0x1c, 0x00, 0x00, 0x00, 0x1c, 0x00, 0x00, 0x00,
     0x0b, 0x00, 0x00, 0x00, 0x70, 0x00, 0x00, 0x00, 0x02, 0x00, 0x00, 0x00,
     0xff, 0xff, 0xff, 0xff, 0x20, 0x00, 0x00, 0x00, 0x90, 0xfc, 0xff, 0xff,
     0x54, 0x00, 0x00, 0x00, 0x73, 0x65, 0x71, 0x75, 0x65, 0x6e, 0x74, 0x69,
     0x61, 0x6c, 0x5f, 0x31, 0x2f, 0x64, 0x65, 0x6e, 0x73, 0x65, 0x5f, 0x32,
     0x5f, 0x31, 0x2f, 0x4d, 0x61, 0x74, 0x4d, 0x75, 0x6c, 0x3b, 0x73, 0x65,
     0x71, 0x75, 0x65, 0x6e, 0x74, 0x69, 0x61, 0x6c, 0x5f, 0x31, 0x2f, 0x64,
     0x65, 0x6e, 0x73, 0x65, 0x5f, 0x32, 0x5f, 0x31, 0x2f, 0x52, 0x65, 0x6c,
     0x75, 0x3b, 0x73, 0x65, 0x71, 0x75, 0x65, 0x6e, 0x74, 0x69, 0x61, 0x6c,
     0x5f, 0x31, 0x2f, 0x64, 0x65, 0x6e, 0x73, 0x65, 0x5f, 0x32, 0x5f, 0x31,
     0x2f, 0x41, 0x64, 0x64, 0x00, 0x00, 0x00, 0x00, 0x02, 0x00, 0x00, 0x00,
     0x01, 0x00, 0x00, 0x00, 0x20, 0x00, 0x00, 0x00, 0x3a, 0xfd, 0xff, 0xff,
     0x00, 0x00, 0x00, 0x01, 0x14, 0x00, 0x00, 0x00, 0x1c, 0x00, 0x00, 0x00,
     0x1c, 0x00, 0x00, 0x00, 0x0a, 0x00, 0x00, 0x00, 0x88, 0x00, 0x00, 0x00,
     0x02, 0x00, 0x00, 0x00, 0xff, 0xff, 0xff, 0xff, 0x20, 0x00, 0x00, 0x00,
     0x24, 0xfd, 0xff, 0xff, 0x6d, 0x00, 0x00, 0x00, 0x73, 0x65, 0x71, 0x75,
     0x65, 0x6e, 0x74, 0x69, 0x61, 0x6c, 0x5f, 0x31, 0x2f, 0x64, 0x65, 0x6e,
     0x73, 0x65, 0x5f, 0x31, 0x2f, 0x41, 0x64, 0x64, 0x3b, 0x73, 0x65, 0x71,
     0x75, 0x65, 0x6e, 0x74, 0x69, 0x61, 0x6c, 0x5f, 0x31, 0x2f, 0x64, 0x65,
     0x6e, 0x73, 0x65, 0x5f, 0x31, 0x5f, 0x32, 0x2f, 0x4d, 0x61, 0x74, 0x4d,
     0x75, 0x6c, 0x3b, 0x73, 0x65, 0x71, 0x75, 0x65, 0x6e, 0x74, 0x69, 0x61,
     0x6c, 0x5f, 0x31, 0x2f, 0x64, 0x65, 0x6e, 0x73, 0x65, 0x5f, 0x31, 0x5f,
     0x32, 0x2f, 0x52, 0x65, 0x6c, 0x75, 0x3b, 0x73, 0x65, 0x71, 0x75, 0x65,
     0x6e, 0x74, 0x69, 0x61, 0x6c, 0x5f, 0x31, 0x2f, 0x64, 0x65, 0x6e, 0x73,
     0x65, 0x5f, 0x31, 0x5f, 0x32, 0x2f, 0x41, 0x64, 0x64, 0x00, 0x00, 0x00,
     0x02, 0x00, 0x00, 0x00, 0x01, 0x00, 0x00, 0x00, 0x20, 0x00, 0x00, 0x00,
     0xe6, 0xfd, 0xff, 0xff, 0x00, 0x00, 0x00, 0x01, 0x14, 0x00, 0x00, 0x00,
     0x1c, 0x00, 0x00, 0x00, 0x1c, 0x00, 0x00, 0x00, 0x09, 0x00, 0x00, 0x00,
     0x38, 0x00, 0x00, 0x00, 0x02, 0x00, 0x00, 0x00, 0xff, 0xff, 0xff, 0xff,
     0x01, 0x00, 0x00, 0x00, 0xd0, 0xfd, 0xff, 0xff, 0x1c, 0x00, 0x00, 0x00,
     0x73, 0x65, 0x71, 0x75, 0x65, 0x6e, 0x74, 0x69, 0x61, 0x6c, 0x5f, 0x31,
     0x2f, 0x64, 0x65, 0x6e, 0x73, 0x65, 0x5f, 0x31, 0x2f, 0x4d, 0x61, 0x74,
     0x4d, 0x75, 0x6c, 0x31, 0x00, 0x00, 0x00, 0x00, 0x02, 0x00, 0x00, 0x00,
     0x01, 0x00, 0x00, 0x00, 0x01, 0x00, 0x00, 0x00, 0x92, 0xfe, 0xff, 0xff,
     0x00, 0x00, 0x00, 0x01, 0x10, 0x00, 0x00, 0x00, 0x10, 0x00, 0x00, 0x00,
     0x08, 0x00, 0x00, 0x00, 0x28, 0x00, 0x00, 0x00, 0x1c, 0xfe, 0xff, 0xff,
     0x1b, 0x00, 0x00, 0x00, 0x73, 0x65, 0x71, 0x75, 0x65, 0x6e, 0x74, 0x69,
     0x61, 0x6c, 0x5f, 0x31, 0x2f, 0x64, 0x65, 0x6e, 0x73, 0x65, 0x5f, 0x31,
     0x2f, 0x4d, 0x61, 0x74, 0x4d, 0x75, 0x6c, 0x00, 0x02, 0x00, 0x00, 0x00,
     0x01, 0x00, 0x00, 0x00, 0x01, 0x00, 0x00, 0x00, 0xda, 0xfe, 0xff, 0xff,
     0x00, 0x00, 0x00, 0x01, 0x10, 0x00, 0x00, 0x00, 0x10, 0x00, 0x00, 0x00,
     0x07, 0x00, 0x00, 0x00, 0x1c, 0x00, 0x00, 0x00, 0x64, 0xfe, 0xff, 0xff,
     0x0f, 0x00, 0x00, 0x00, 0x61, 0x72, 0x69, 0x74, 0x68, 0x2e, 0x63, 0x6f,
     0x6e, 0x73, 0x74, 0x61, 0x6e, 0x74, 0x35, 0x00, 0x01, 0x00, 0x00, 0x00,
     0x20, 0x00, 0x00, 0x00, 0x12, 0xff, 0xff, 0xff, 0x00, 0x00, 0x00, 0x01,
     0x10, 0x00, 0x00, 0x00, 0x10, 0x00, 0x00, 0x00, 0x06, 0x00, 0x00, 0x00,
     0x1c, 0x00, 0x00, 0x00, 0x9c, 0xfe, 0xff, 0xff, 0x0f, 0x00, 0x00, 0x00,
     0x61, 0x72, 0x69, 0x74, 0x68, 0x2e, 0x63, 0x6f, 0x6e, 0x73, 0x74, 0x61,
     0x6e, 0x74, 0x34, 0x00, 0x01, 0x00, 0x00, 0x00, 0x01, 0x00, 0x00, 0x00,
     0x4a, 0xff, 0xff, 0xff, 0x00, 0x00, 0x00, 0x01, 0x10, 0x00, 0x00, 0x00,
     0x10, 0x00, 0x00, 0x00, 0x05, 0x00, 0x00, 0x00, 0x1c, 0x00, 0x00, 0x00,
     0xd4, 0xfe, 0xff, 0xff, 0x0f, 0x00, 0x00, 0x00, 0x61, 0x72, 0x69, 0x74,
     0x68, 0x2e, 0x63, 0x6f, 0x6e, 0x73, 0x74, 0x61, 0x6e, 0x74, 0x33, 0x00,
     0x02, 0x00, 0x00, 0x00, 0x20, 0x00, 0x00, 0x00, 0x01, 0x00, 0x00, 0x00,
     0x86, 0xff, 0xff, 0xff, 0x00, 0x00, 0x00, 0x01, 0x10, 0x00, 0x00, 0x00,
     0x10, 0x00, 0x00, 0x00, 0x04, 0x00, 0x00, 0x00, 0x1c, 0x00, 0x00, 0x00,
     0x10, 0xff, 0xff, 0xff, 0x0f, 0x00, 0x00, 0x00, 0x61, 0x72, 0x69, 0x74,
     0x68, 0x2e, 0x63, 0x6f, 0x6e, 0x73, 0x74, 0x61, 0x6e, 0x74, 0x32, 0x00,
     0x02, 0x00, 0x00, 0x00, 0x20, 0x00, 0x00, 0x00, 0x20, 0x00, 0x00, 0x00,
     0xc2, 0xff, 0xff, 0xff, 0x00, 0x00, 0x00, 0x01, 0x10, 0x00, 0x00, 0x00,
     0x10, 0x00, 0x00, 0x00, 0x03, 0x00, 0x00, 0x00, 0x1c, 0x00, 0x00, 0x00,
     0x4c, 0xff, 0xff, 0xff, 0x0f, 0x00, 0x00, 0x00, 0x61, 0x72, 0x69, 0x74,
     0x68, 0x2e, 0x63, 0x6f, 0x6e, 0x73, 0x74, 0x61, 0x6e, 0x74, 0x31, 0x00,
     0x02, 0x00, 0x00, 0x00, 0x01, 0x00, 0x00, 0x00, 0x20, 0x00, 0x00, 0x00,
     0x00, 0x00, 0x16, 0x00, 0x18, 0x00, 0x14, 0x00, 0x00, 0x00, 0x10, 0x00,
     0x0c, 0x00, 0x08, 0x00, 0x00, 0x00, 0x00, 0x00, 0x00, 0x00, 0x07, 0x00,
     0x16, 0x00, 0x00, 0x00, 0x00, 0x00, 0x00, 0x01, 0x10, 0x00, 0x00, 0x00,
     0x10, 0x00, 0x00, 0x00, 0x02, 0x00, 0x00, 0x00, 0x1c, 0x00, 0x00, 0x00,
     0xa0, 0xff, 0xff, 0xff, 0x0e, 0x00, 0x00, 0x00, 0x61, 0x72, 0x69, 0x74,
     0x68, 0x2e, 0x63, 0x6f, 0x6e, 0x73, 0x74, 0x61, 0x6e, 0x74, 0x00, 0x00,
     0x01, 0x00, 0x00, 0x00, 0x20, 0x00, 0x00, 0x00, 0x00, 0x00, 0x16, 0x00,
     0x1c, 0x00, 0x18, 0x00, 0x00, 0x00, 0x14, 0x00, 0x10, 0x00, 0x0c, 0x00,
     0x00, 0x00, 0x00, 0x00, 0x08, 0x00, 0x07, 0x00, 0x16, 0x00, 0x00, 0x00,
     0x00, 0x00, 0x00, 0x01, 0x14, 0x00, 0x00, 0x00, 0x20, 0x00, 0x00, 0x00,
     0x20, 0x00, 0x00, 0x00, 0x01, 0x00, 0x00, 0x00, 0x3c, 0x00, 0x00, 0x00,
     0x02, 0x00, 0x00, 0x00, 0xff, 0xff, 0xff, 0xff, 0x01, 0x00, 0x00, 0x00,
     0x04, 0x00, 0x04, 0x00, 0x04, 0x00, 0x00, 0x00, 0x1e, 0x00, 0x00, 0x00,
     0x73, 0x65, 0x72, 0x76, 0x69, 0x6e, 0x67, 0x5f, 0x64, 0x65, 0x66, 0x61,
     0x75, 0x6c, 0x74, 0x5f, 0x6b, 0x65, 0x72, 0x61, 0x73, 0x5f, 0x74, 0x65,
     0x6e, 0x73, 0x6f, 0x72, 0x3a, 0x30, 0x00, 0x00, 0x02, 0x00, 0x00, 0x00,
     0x01, 0x00, 0x00, 0x00, 0x01, 0x00, 0x00, 0x00, 0x01, 0x00, 0x00, 0x00,
     0x10, 0x00, 0x00, 0x00, 0x0c, 0x00, 0x0c, 0x00, 0x0b, 0x00, 0x00, 0x00,
     0x00, 0x00, 0x04, 0x00, 0x0c, 0x00, 0x00, 0x00, 0x09, 0x00, 0x00, 0x00,
     0x00, 0x00, 0x00, 0x09
};
