unsigned int model1_len = 6688;

alignas(8) const unsigned char model1[] = {
     0x1c, 0x00, 0x00, 0x00, 0x54, 0x46, 0x4c, 0x33, 0x14, 0x00, 0x20, 0x00,
     0x1c, 0x00, 0x18, 0x00, 0x14, 0x00, 0x10, 0x00, 0x0c, 0x00, 0x00, 0x00,
     0x08, 0x00, 0x04, 0x00, 0x14, 0x00, 0x00, 0x00, 0x1c, 0x00, 0x00, 0x00,
     0x98, 0x00, 0x00, 0x00, 0xf0, 0x00, 0x00, 0x00, 0x24, 0x14, 0x00, 0x00,
     0x34, 0x14, 0x00, 0x00, 0xcc, 0x19, 0x00, 0x00, 0x03, 0x00, 0x00, 0x00,
     0x01, 0x00, 0x00, 0x00, 0x10, 0x00, 0x00, 0x00, 0x00, 0x00, 0x0a, 0x00,
     0x10, 0x00, 0x0c, 0x00, 0x08, 0x00, 0x04, 0x00, 0x0a, 0x00, 0x00, 0x00,
     0x0c, 0x00, 0x00, 0x00, 0x1c, 0x00, 0x00, 0x00, 0x3c, 0x00, 0x00, 0x00,
     0x0f, 0x00, 0x00, 0x00, 0x73, 0x65, 0x72, 0x76, 0x69, 0x6e, 0x67, 0x5f,
     0x64, 0x65, 0x66, 0x61, 0x75, 0x6c, 0x74, 0x00, 0x01, 0x00, 0x00, 0x00,
     0x04, 0x00, 0x00, 0x00, 0x90, 0xff, 0xff, 0xff, 0x0b, 0x00, 0x00, 0x00,
     0x04, 0x00, 0x00, 0x00, 0x08, 0x00, 0x00, 0x00, 0x6f, 0x75, 0x74, 0x70,
     0x75, 0x74, 0x5f, 0x30, 0x00, 0x00, 0x00, 0x00, 0x01, 0x00, 0x00, 0x00,
     0x04, 0x00, 0x00, 0x00, 0xea, 0xec, 0xff, 0xff, 0x04, 0x00, 0x00, 0x00,
     0x0c, 0x00, 0x00, 0x00, 0x6b, 0x65, 0x72, 0x61, 0x73, 0x5f, 0x74, 0x65,
     0x6e, 0x73, 0x6f, 0x72, 0x00, 0x00, 0x00, 0x00, 0x02, 0x00, 0x00, 0x00,
     0x34, 0x00, 0x00, 0x00, 0x04, 0x00, 0x00, 0x00, 0xdc, 0xff, 0xff, 0xff,
     0x0e, 0x00, 0x00, 0x00, 0x04, 0x00, 0x00, 0x00, 0x13, 0x00, 0x00, 0x00,
     0x43, 0x4f, 0x4e, 0x56, 0x45, 0x52, 0x53, 0x49, 0x4f, 0x4e, 0x5f, 0x4d,
     0x45, 0x54, 0x41, 0x44, 0x41, 0x54, 0x41, 0x00, 0x08, 0x00, 0x0c, 0x00,
     0x08, 0x00, 0x04, 0x00, 0x08, 0x00, 0x00, 0x00, 0x0d, 0x00, 0x00, 0x00,
     0x04, 0x00, 0x00, 0x00, 0x13, 0x00, 0x00, 0x00, 0x6d, 0x69, 0x6e, 0x5f,
     0x72, 0x75, 0x6e, 0x74, 0x69, 0x6d, 0x65, 0x5f, 0x76, 0x65, 0x72, 0x73,
     0x69, 0x6f, 0x6e, 0x00, 0x0f, 0x00, 0x00, 0x00, 0x30, 0x13, 0x00, 0x00,
     0x28, 0x13, 0x00, 0x00, 0x98, 0x12, 0x00, 0x00, 0x00, 0x12, 0x00, 0x00,
     0xf0, 0x01, 0x00, 0x00, 0x60, 0x01, 0x00, 0x00, 0x4c, 0x01, 0x00, 0x00,
     0xbc, 0x00, 0x00, 0x00, 0xa8, 0x00, 0x00, 0x00, 0xa0, 0x00, 0x00, 0x00,
     0x98, 0x00, 0x00, 0x00, 0x90, 0x00, 0x00, 0x00, 0x88, 0x00, 0x00, 0x00,
     0x68, 0x00, 0x00, 0x00, 0x04, 0x00, 0x00, 0x00, 0xa2, 0xed, 0xff, 0xff,
     0x04, 0x00, 0x00, 0x00, 0x54, 0x00, 0x00, 0x00, 0x0c, 0x00, 0x00, 0x00,
     0x08, 0x00, 0x0e, 0x00, 0x08, 0x00, 0x04, 0x00, 0x08, 0x00, 0x00, 0x00,
     0x10, 0x00, 0x00, 0x00, 0x24, 0x00, 0x00, 0x00, 0x00, 0x00, 0x06, 0x00,
     0x08, 0x00, 0x04, 0x00, 0x06, 0x00, 0x00, 0x00, 0x04, 0x00, 0x00, 0x00,
     0x00, 0x00, 0x00, 0x00, 0x00, 0x00, 0x0a, 0x00, 0x10, 0x00, 0x0c, 0x00,
     0x08, 0x00, 0x04, 0x00, 0x0a, 0x00, 0x00, 0x00, 0x01, 0x00, 0x00, 0x00,
     0x02, 0x00, 0x00, 0x00, 0x04, 0x00, 0x00, 0x00, 0x06, 0x00, 0x00, 0x00,
     0x32, 0x2e, 0x31, 0x36, 0x2e, 0x31, 0x00, 0x00, 0x02, 0xee, 0xff, 0xff,
     0x04, 0x00, 0x00, 0x00, 0x10, 0x00, 0x00, 0x00, 0x31, 0x2e, 0x35, 0x2e,
     0x30, 0x00, 0x00, 0x00, 0x00, 0x00, 0x00, 0x00, 0x00, 0x00, 0x00, 0x00,
     0x0c, 0xe8, 0xff, 0xff, 0x10, 0xe8, 0xff, 0xff, 0x14, 0xe8, 0xff, 0xff,
     0x18, 0xe8, 0xff, 0xff, 0x2e, 0xee, 0xff, 0xff, 0x04, 0x00, 0x00, 0x00,
     0x04, 0x00, 0x00, 0x00, 0x1a, 0x31, 0x6e, 0x3f, 0x3e, 0xee, 0xff, 0xff,
     0x04, 0x00, 0x00, 0x00, 0x80, 0x00, 0x00, 0x00, 0x00, 0x00, 0x00, 0x00,
     0x67, 0xc7, 0x18, 0x3e, 0xf0, 0xda, 0x9d, 0xbe, 0x37, 0x9b, 0x0f, 0x3f,
     0xfd, 0x1d, 0x00, 0x3e, 0xf2, 0xdc, 0x31, 0x3e, 0xc9, 0xa3, 0x07, 0x3e,
     0x28, 0x47, 0x12, 0x3e, 0xfb, 0x68, 0xce, 0xbd, 0x51, 0xfb, 0xec, 0x3d,
     0xb3, 0xee, 0x11, 0xbe, 0x26, 0x8d, 0x02, 0xbb, 0xe6, 0x75, 0x6e, 0xbc,
     0x52, 0xb3, 0x14, 0x3b, 0xfa, 0x4e, 0x75, 0xbd, 0x00, 0x00, 0x00, 0x00,
     0x9a, 0x16, 0x20, 0x3e, 0xc6, 0xce, 0x3c, 0x3e, 0x00, 0x00, 0x00, 0x00,
     0x3b, 0xcd, 0x41, 0x3e, 0x9f, 0x2d, 0x11, 0x3e, 0x26, 0x32, 0xc5, 0xbd,
     0xd8, 0x30, 0x88, 0xbd, 0xbc, 0xe1, 0x7d, 0xbe, 0xd6, 0xce, 0x10, 0xbe,
     0x00, 0x00, 0x00, 0x00, 0x36, 0x48, 0x26, 0x3e, 0x9d, 0xeb, 0x19, 0x3e,
     0x00, 0x00, 0x00, 0x00, 0xec, 0x0a, 0xcc, 0xbb, 0x1b, 0x62, 0x0b, 0x3e,
     0xdb, 0xfe, 0x01, 0x3f, 0xca, 0xee, 0xff, 0xff, 0x04, 0x00, 0x00, 0x00,
     0x04, 0x00, 0x00, 0x00, 0xc2, 0x64, 0x08, 0xbe, 0xda, 0xee, 0xff, 0xff,
     0x04, 0x00, 0x00, 0x00, 0x80, 0x00, 0x00, 0x00, 0xe6, 0xe6, 0xd8, 0xbe,
     0x12, 0x71, 0x1a, 0xbe, 0xe6, 0xcb, 0x20, 0xbe, 0x0d, 0xbd, 0x55, 0x3e,
     0x92, 0x93, 0x5f, 0x3e, 0xc3, 0x34, 0xd1, 0x3d, 0x01, 0x1d, 0x13, 0xbe,
     0xe0, 0x14, 0x8a, 0xbb, 0x6b, 0x7a, 0x78, 0x3e, 0x30, 0x38, 0x5b, 0x3e,
     0xaa, 0x68, 0x83, 0x3e, 0x85, 0x9d, 0xbf, 0xbe, 0x26, 0x42, 0x0c, 0xbf,
     0x6c, 0x96, 0x46, 0xbe, 0xf3, 0x45, 0xad, 0xbb, 0x2b, 0xe2, 0xbf, 0x3e,
     0x4e, 0xa0, 0xac, 0x3d, 0xc6, 0xa9, 0xe0, 0xbe, 0x80, 0x0e, 0x90, 0xbc,
     0x7c, 0xd2, 0x39, 0xbf, 0xdc, 0xcb, 0x98, 0x3e, 0x99, 0xcc, 0x0a, 0xbf,
     0xaa, 0xdb, 0x0e, 0xbe, 0x03, 0x98, 0x13, 0xbe, 0xb7, 0x6c, 0x18, 0xbe,
     0x5b, 0x2f, 0x85, 0x3e, 0xf8, 0xaa, 0x87, 0xbe, 0xac, 0x6b, 0xc3, 0x3e,
     0x90, 0x75, 0x20, 0xbe, 0x56, 0xf0, 0x4a, 0xbf, 0x65, 0x72, 0x82, 0x3e,
     0x93, 0x64, 0x3b, 0x3e, 0x66, 0xef, 0xff, 0xff, 0x04, 0x00, 0x00, 0x00,
     0x00, 0x10, 0x00, 0x00, 0xc2, 0x5b, 0x38, 0x3e, 0x69, 0xf9, 0x63, 0xbe,
     0x9e, 0x05, 0x19, 0x3e, 0x98, 0xff, 0x1d, 0xbd, 0xe2, 0x1a, 0x88, 0xbe,
     0x18, 0xa8, 0x0f, 0x3d, 0xc9, 0xed, 0x90, 0x3e, 0x9a, 0x29, 0xf2, 0xbd,
     0x2c, 0x19, 0xde, 0x3d, 0x54, 0xb4, 0xd2, 0x3d, 0x29, 0x71, 0x98, 0x3e,
     0x53, 0x8e, 0x20, 0xbe, 0x7a, 0x48, 0x8e, 0xbe, 0x5d, 0xf5, 0x96, 0xbe,
     0x37, 0xfc, 0x99, 0xbe, 0x98, 0x49, 0x38, 0xbe, 0xeb, 0xa9, 0x83, 0xbe,
     0x90, 0xe3, 0xaf, 0x3c, 0xcc, 0xec, 0x2b, 0x3e, 0xac, 0x00, 0xce, 0x3d,
     0x66, 0xef, 0xf6, 0xbd, 0x90, 0x42, 0x2e, 0x3d, 0xe4, 0xb9, 0xd3, 0x3d,
     0x1f, 0x4a, 0x4e, 0xbe, 0x06, 0x8a, 0x79, 0xbe, 0x78, 0x5f, 0x0c, 0x3d,
     0xa2, 0x66, 0x61, 0xbe, 0xd8, 0x6a, 0x37, 0xbe, 0x07, 0x74, 0x93, 0xbe,
     0x40, 0xe7, 0x69, 0xbc, 0xba, 0x35, 0x4d, 0x3e, 0x28, 0x5a, 0x12, 0xbd,
     0xe1, 0x1c, 0x6a, 0xbe, 0x9c, 0xe4, 0x22, 0x3d, 0x9a, 0x84, 0x0b, 0x3e,
     0xae, 0x7a, 0xdc, 0x3d, 0x68, 0x99, 0x77, 0xbe, 0xe9, 0xfb, 0xb0, 0xbc,
     0xb1, 0x0d, 0xc2, 0x3e, 0x91, 0x33, 0x85, 0xbe, 0x9b, 0xf4, 0x8f, 0xbe,
     0x2d, 0xc1, 0xa0, 0xbd, 0x3e, 0x27, 0x32, 0xbe, 0x98, 0x05, 0x15, 0xbe,
     0xab, 0x19, 0xe3, 0xbe, 0x68, 0x0d, 0xc2, 0x3e, 0x1c, 0xdc, 0xb1, 0x3e,
     0x8f, 0x11, 0xa2, 0xbe, 0x82, 0x44, 0x26, 0x3d, 0xf0, 0x2a, 0xf6, 0xbe,
     0xa6, 0xf1, 0x0d, 0x3e, 0x3c, 0x02, 0x3b, 0xbe, 0xfd, 0x9b, 0xe1, 0xbe,
     0xbd, 0x51, 0x6c, 0xbe, 0xd9, 0xbd, 0xd1, 0x3e, 0x25, 0x78, 0x7b, 0x3e,
     0x20, 0x4c, 0xce, 0x3e, 0x26, 0x08, 0x3f, 0xbf, 0xfb, 0xe3, 0x5f, 0xbe,
     0x2e, 0xd0, 0x9c, 0xbe, 0x41, 0x90, 0xe0, 0x3e, 0x11, 0x5f, 0xf9, 0xbe,
     0xc7, 0x10, 0xb0, 0xbe, 0x43, 0x08, 0xec, 0xbb, 0x29, 0x65, 0x08, 0x3e,
     0x07, 0x66, 0xf0, 0x3e, 0x80, 0x5f, 0x10, 0x3e, 0xb2, 0x77, 0xb6, 0x3d,
     0x6e, 0x62, 0xd5, 0xbc, 0x67, 0xa4, 0xca, 0xbe, 0x64, 0x90, 0x10, 0xbe,
     0x41, 0xbc, 0xee, 0x3d, 0xaf, 0xd3, 0x30, 0x3f, 0x28, 0x21, 0xa5, 0x3d,
     0xcf, 0xa5, 0x79, 0x3e, 0xee, 0xf0, 0xc1, 0xbe, 0x3e, 0xdf, 0x55, 0xbd,
     0x96, 0x1b, 0x3c, 0x3e, 0xe6, 0xe2, 0x60, 0xbe, 0x2f, 0x0f, 0xd0, 0xbc,
     0xae, 0xaf, 0x91, 0xbc, 0x24, 0x66, 0xa3, 0x3c, 0x5e, 0x33, 0x46, 0xbd,
     0x2b, 0x5d, 0xbb, 0xbe, 0x1f, 0xfc, 0x2b, 0x3e, 0x3b, 0xaa, 0xfd, 0xbd,
     0x1e, 0x64, 0x33, 0x3e, 0xd8, 0x98, 0x42, 0x3e, 0xc7, 0xaa, 0xb2, 0x3e,
     0xef, 0x40, 0x98, 0x3e, 0x9d, 0xee, 0xdb, 0x3d, 0xf4, 0x22, 0x8f, 0xbd,
     0x94, 0x74, 0xc8, 0xbc, 0xc8, 0xd0, 0x9d, 0xbe, 0x00, 0x84, 0xfa, 0x3e,
     0xb1, 0x6b, 0x18, 0xbe, 0xbf, 0x6d, 0xb1, 0xbe, 0x29, 0x26, 0x4f, 0xbe,
     0x05, 0x1f, 0x1b, 0xbe, 0x39, 0x38, 0x50, 0xbe, 0xc6, 0x8c, 0x8c, 0xbf,
     0x4d, 0x82, 0xb7, 0x3d, 0x42, 0x73, 0xcb, 0xbe, 0x1c, 0x6a, 0x3a, 0xbd,
     0xb2, 0x2b, 0x0b, 0xbf, 0xfc, 0xc4, 0x53, 0x3e, 0xb7, 0x46, 0xcd, 0xbf,
     0xf9, 0x84, 0x6c, 0xbe, 0xf2, 0x6f, 0x97, 0xbd, 0x05, 0xf8, 0x01, 0xbf,
     0xc7, 0x46, 0x5e, 0x3e, 0xf9, 0x56, 0x9b, 0xbf, 0x18, 0xc4, 0x11, 0x3f,
     0x2a, 0x78, 0x84, 0xbe, 0xc8, 0xbf, 0x9f, 0x3d, 0x30, 0xd7, 0x62, 0xbb,
     0x1f, 0x72, 0xda, 0xbe, 0xfe, 0xee, 0x7a, 0xbe, 0x5b, 0xd6, 0xaf, 0xbe,
     0xdf, 0xc5, 0xe5, 0xbe, 0x32, 0x74, 0xb7, 0xbe, 0x70, 0x06, 0xbb, 0xbe,
     0xa7, 0xd0, 0x92, 0xbe, 0xe5, 0x61, 0x9e, 0x3a, 0x52, 0x5e, 0x65, 0x3d,
     0xa3, 0xf3, 0x55, 0xbd, 0xb8, 0xb4, 0xe2, 0xbe, 0xd0, 0xfa, 0x64, 0x3e,
     0xfd, 0xfa, 0xb3, 0x3e, 0xbd, 0x3c, 0x58, 0x3d, 0xe6, 0x16, 0x49, 0xbd,
     0xd1, 0x2f, 0x65, 0x3b, 0x8a, 0xdd, 0xe3, 0xbe, 0x9e, 0x0c, 0x71, 0x3e,
     0x20, 0xfd, 0x92, 0xbe, 0xb6, 0xae, 0x89, 0x3e, 0x34, 0xea, 0xb4, 0xbe,
     0xc6, 0xe3, 0xbd, 0xbd, 0x28, 0xae, 0xa6, 0xbe, 0xb2, 0x0c, 0x59, 0xbd,
     0x2d, 0x7f, 0xe4, 0x3e, 0xb7, 0x51, 0x86, 0x3d, 0x21, 0x02, 0x90, 0x3e,
     0x70, 0x05, 0x98, 0xbe, 0x9c, 0x6c, 0x7c, 0x3e, 0x97, 0x70, 0xa6, 0xbd,
     0x59, 0xe5, 0xaf, 0xbd, 0x80, 0x0d, 0xcb, 0x3e, 0x8e, 0xe8, 0x2c, 0xbe,
     0xf8, 0x38, 0x56, 0x3e, 0xba, 0x54, 0x6a, 0xb9, 0x1b, 0xcd, 0xa9, 0xbe,
     0x40, 0x71, 0x5a, 0xbe, 0xfa, 0x2c, 0xbf, 0x3d, 0xc6, 0x9a, 0xbc, 0x3e,
     0xeb, 0x11, 0x73, 0x3e, 0x52, 0x32, 0xe9, 0xbd, 0x39, 0xd5, 0x0b, 0x3f,
     0xd6, 0x03, 0x56, 0xbe, 0x24, 0xae, 0x9c, 0x3e, 0x4b, 0xbe, 0xfb, 0xbd,
     0x26, 0xb2, 0x4f, 0x3e, 0xc3, 0xf2, 0xe4, 0x3e, 0x50, 0x6d, 0x3b, 0xbe,
     0xb4, 0x20, 0xc1, 0xbe, 0x6e, 0x81, 0x31, 0x3e, 0xbb, 0x80, 0xb4, 0x3d,
     0xb4, 0x97, 0xe3, 0xbd, 0xc9, 0x24, 0xc3, 0xbe, 0x06, 0xb3, 0xaa, 0xbe,
     0xad, 0x38, 0x69, 0xbe, 0x5e, 0x67, 0xab, 0xbe, 0x9c, 0xc7, 0xc1, 0xbe,
     0xb7, 0xda, 0x30, 0xbe, 0x2b, 0xd6, 0x90, 0x3e, 0x21, 0x6a, 0x8c, 0xbe,
     0x10, 0x5b, 0x85, 0x3e, 0x56, 0x77, 0xcd, 0xbe, 0x73, 0xb9, 0x9f, 0x3d,
     0x94, 0x72, 0xb1, 0xbe, 0xb7, 0xa5, 0x3c, 0xbe, 0xf8, 0x7e, 0xdc, 0xbe,
     0x24, 0xeb, 0xfd, 0x3d, 0xf4, 0x9b, 0x56, 0x3d, 0xcd, 0xef, 0x0b, 0x3e,
     0x73, 0x9a, 0x15, 0xbf, 0x73, 0x59, 0xd4, 0x3c, 0x85, 0x97, 0xa0, 0xbe,
     0x9b, 0xfe, 0x8f, 0x3e, 0xdc, 0xee, 0x96, 0xbe, 0xdb, 0x50, 0x29, 0xbe,
     0x19, 0x09, 0x91, 0xbc, 0x29, 0x59, 0x02, 0x3e, 0x5b, 0x07, 0x8a, 0xbe,
     0xbb, 0x13, 0xaa, 0xbd, 0x4c, 0x9c, 0x7e, 0x3a, 0xe8, 0xda, 0x7c, 0xbe,
     0x29, 0x8d, 0x98, 0x3e, 0x2f, 0x88, 0x19, 0xbe, 0x4d, 0x03, 0x89, 0x3e,
     0xcc, 0x88, 0x74, 0xbe, 0x0d, 0x55, 0x88, 0x3e, 0x46, 0xf4, 0x40, 0xbd,
     0x89, 0xfe, 0x04, 0xbd, 0x90, 0x9b, 0x65, 0x3d, 0x40, 0xaf, 0x94, 0xbe,
     0x82, 0x5e, 0x52, 0x3d, 0xd6, 0x5c, 0x43, 0xbe, 0x3c, 0x21, 0x3c, 0xbe,
     0x6e, 0xf4, 0x83, 0xbe, 0xa4, 0x93, 0x81, 0xbe, 0x54, 0x78, 0xd3, 0x3d,
     0xf5, 0x44, 0xbf, 0xbd, 0xa8, 0xbb, 0xc4, 0xbd, 0x27, 0xb5, 0x29, 0xbf,
     0x6f, 0x9b, 0x0b, 0xbf, 0xc8, 0x52, 0x5d, 0xbe, 0xee, 0x98, 0x07, 0xbe,
     0xa0, 0x8e, 0x61, 0x3e, 0xaf, 0xe1, 0x5e, 0x3c, 0xd8, 0xe4, 0x08, 0xbf,
     0xd2, 0x94, 0x19, 0x3e, 0x98, 0x78, 0x09, 0xbe, 0x96, 0x49, 0x38, 0x3e,
     0x3d, 0x60, 0xba, 0xbd, 0xa3, 0xcb, 0x78, 0xbe, 0x5a, 0xb9, 0x76, 0xbe,
     0xd2, 0x3b, 0x5a, 0x3b, 0x31, 0x3b, 0x09, 0xbe, 0x0c, 0x9d, 0x5b, 0xbe,
     0x7e, 0xcc, 0x07, 0xbf, 0xe4, 0xbd, 0x70, 0xbe, 0x28, 0x35, 0x9f, 0xbe,
     0xd2, 0x34, 0xda, 0x3d, 0x82, 0x8c, 0xb9, 0xbe, 0x3b, 0x50, 0x1b, 0x3a,
     0x6c, 0x17, 0xac, 0x3d, 0xa2, 0x4a, 0xa5, 0xbe, 0x14, 0x44, 0x83, 0x3e,
     0x0f, 0x2e, 0x82, 0xbe, 0x76, 0x03, 0x2e, 0x3e, 0x42, 0x77, 0x56, 0xbe,
     0x5e, 0x58, 0x97, 0xbe, 0x69, 0x55, 0x8a, 0xbd, 0x44, 0x25, 0x53, 0xbe,
     0x55, 0x64, 0x6b, 0xbe, 0xe2, 0x1f, 0xcd, 0xbe, 0xf7, 0x6a, 0x31, 0xbf,
     0xec, 0xba, 0x32, 0xbe, 0xd7, 0x70, 0x58, 0xbe, 0x9d, 0xbb, 0x9c, 0x3d,
     0x4a, 0x93, 0x85, 0x3e, 0x2d, 0xbf, 0x22, 0xbf, 0xed, 0x30, 0x88, 0x3e,
     0xdd, 0x39, 0x89, 0xbe, 0x82, 0x1a, 0x91, 0x3e, 0xa5, 0xc8, 0x19, 0xbd,
     0x48, 0xd1, 0x72, 0x3e, 0xb2, 0x04, 0x84, 0x3c, 0xc4, 0x6f, 0xec, 0x3d,
     0x5d, 0xad, 0x12, 0xbe, 0x83, 0x06, 0x30, 0x3e, 0x7b, 0x50, 0x75, 0x3e,
     0x3e, 0x44, 0x2b, 0xba, 0x16, 0x53, 0x3d, 0x3d, 0x05, 0x40, 0x52, 0xbe,
     0x83, 0x57, 0xa2, 0xbe, 0xf9, 0xa9, 0x48, 0xbe, 0x6b, 0xaa, 0xb2, 0xbe,
     0xe2, 0x96, 0x20, 0xbd, 0xff, 0x06, 0xd2, 0x3c, 0x49, 0xaa, 0x58, 0x3e,
     0xa3, 0x20, 0x4b, 0x3e, 0x4c, 0x0d, 0xd3, 0x3c, 0x26, 0x17, 0x36, 0xbd,
     0x7f, 0xd1, 0x04, 0xbe, 0x4c, 0x0e, 0x4c, 0x3e, 0x83, 0x5e, 0xc1, 0xbe,
     0x65, 0xa7, 0x76, 0x3e, 0x05, 0x7f, 0xd9, 0x3e, 0xf5, 0xdd, 0x3a, 0x3d,
     0x59, 0x95, 0x0f, 0xbe, 0x33, 0x5e, 0xd0, 0x3d, 0x9e, 0x3f, 0x82, 0xbe,
     0x67, 0xcd, 0xbd, 0xbd, 0x90, 0x80, 0x18, 0xbe, 0x78, 0xc1, 0x1d, 0x3e,
     0xb2, 0xd0, 0x35, 0xbe, 0x95, 0xb4, 0x46, 0xbe, 0x96, 0xc2, 0x10, 0xbf,
     0xbc, 0x90, 0xdb, 0xbe, 0x90, 0x42, 0xcc, 0x3d, 0x3d, 0x96, 0x78, 0xbe,
     0x70, 0x96, 0x9b, 0x3e, 0xe0, 0x42, 0x87, 0xbe, 0x10, 0xec, 0xf1, 0x3d,
     0x64, 0xc9, 0x40, 0xbe, 0x39, 0x61, 0x29, 0xbe, 0x61, 0xd1, 0xa1, 0xbe,
     0xe8, 0xb2, 0x20, 0x3e, 0x71, 0xb6, 0x34, 0xbe, 0x99, 0x40, 0x03, 0xbf,
     0x46, 0xaa, 0x87, 0xbd, 0x7b, 0x63, 0x9f, 0x3d, 0x60, 0xda, 0xa8, 0x3e,
     0x05, 0x23, 0x5d, 0x3e, 0x86, 0xb3, 0x5c, 0x3e, 0x0b, 0x9a, 0x30, 0xbe,
     0x58, 0x1e, 0x49, 0x3d, 0x3c, 0x7f, 0x62, 0xbe, 0xd3, 0x19, 0xca, 0xbe,
     0xa6, 0x16, 0x59, 0xbe, 0x8f, 0x03, 0x12, 0xbf, 0x15, 0x5a, 0xe9, 0xbb,
     0x5d, 0xc6, 0x66, 0xbe, 0xfb, 0xac, 0x3b, 0x3c, 0x27, 0x66, 0x94, 0xbd,
     0x19, 0xe3, 0x80, 0x3e, 0x47, 0x97, 0x04, 0xbe, 0xb0, 0x68, 0x3b, 0x3e,
     0x3f, 0xb3, 0xb4, 0xbe, 0x9c, 0x60, 0xf1, 0x3e, 0xf9, 0x94, 0x7f, 0x3e,
     0x53, 0x5b, 0x14, 0xbe, 0x8e, 0x9b, 0xc5, 0x3c, 0x15, 0xff, 0x1b, 0xbe,
     0x97, 0xbb, 0x5f, 0x3e, 0x55, 0x88, 0xe1, 0xbb, 0x2f, 0xb5, 0xd0, 0x3e,
     0x34, 0xbd, 0x58, 0x3e, 0x2f, 0x99, 0x4b, 0xbe, 0x72, 0x64, 0xe1, 0xbe,
     0xb0, 0xc2, 0xa9, 0xbd, 0x83, 0xb7, 0x75, 0x3e, 0x6b, 0x84, 0x85, 0x38,
     0x42, 0x36, 0xb3, 0xbd, 0x47, 0x2e, 0x66, 0x3e, 0x27, 0x8d, 0xaa, 0xbe,
     0x92, 0x3e, 0x92, 0xbd, 0x55, 0xbd, 0xc9, 0xbe, 0x08, 0xa8, 0x81, 0x3e,
     0xda, 0x16, 0xd9, 0xbd, 0x52, 0xe8, 0x04, 0x3f, 0x2d, 0xa1, 0xc0, 0x3e,
     0xed, 0x6c, 0xf0, 0x3e, 0x58, 0x23, 0x50, 0x3e, 0x3d, 0x83, 0xf7, 0xbd,
     0xe2, 0x19, 0xd2, 0x3a, 0x96, 0x85, 0x47, 0x3e, 0x9c, 0x08, 0xa7, 0xbe,
     0xc8, 0x8f, 0x1d, 0xbc, 0x01, 0x18, 0x70, 0x3e, 0x86, 0xbb, 0xb3, 0x3d,
     0x52, 0x7a, 0x1e, 0xbe, 0xbb, 0xee, 0x6b, 0xbd, 0x8a, 0x82, 0x8f, 0xbe,
     0x66, 0x05, 0x31, 0xbe, 0x18, 0x16, 0x8f, 0x3d, 0xb5, 0x58, 0x65, 0xbd,
     0x16, 0xbf, 0x69, 0x3e, 0xb4, 0x30, 0x35, 0x3e, 0x32, 0x23, 0x31, 0x3e,
     0xa0, 0x86, 0x5e, 0x3d, 0x0d, 0x5e, 0x81, 0x3e, 0xde, 0xaa, 0x99, 0x3e,
     0x1e, 0x44, 0x89, 0x3e, 0xbe, 0x3e, 0x30, 0xbe, 0xd6, 0x7c, 0x45, 0xbe,
     0xdf, 0xba, 0x61, 0xbe, 0x67, 0x51, 0x51, 0x3e, 0xe4, 0xab, 0xb1, 0xbd,
     0x8e, 0x77, 0x6a, 0xbe, 0x2e, 0x09, 0x82, 0xbd, 0xd6, 0x52, 0x48, 0xbe,
     0x94, 0x7a, 0xc4, 0xbd, 0xaf, 0x4e, 0x5f, 0xbe, 0xf2, 0x99, 0x4c, 0x3d,
     0xc0, 0x09, 0x9c, 0xbb, 0xda, 0xc0, 0x45, 0xbe, 0x7e, 0x03, 0x47, 0x3e,
     0xc0, 0x40, 0xa0, 0xb6, 0x10, 0x93, 0x80, 0x3e, 0x68, 0x5c, 0x75, 0x3d,
     0xb7, 0x92, 0xb3, 0xbc, 0x80, 0xe0, 0xb7, 0xbd, 0xd8, 0x0e, 0x8e, 0xbe,
     0xe8, 0xa5, 0x0c, 0x3e, 0x40, 0xee, 0x91, 0xbe, 0xd4, 0x4d, 0x92, 0xbe,
     0x62, 0x2f, 0xd9, 0x3c, 0x5e, 0x2c, 0x46, 0xbd, 0x78, 0x9d, 0x2d, 0xbd,
     0xcf, 0xdf, 0xb5, 0x3b, 0x40, 0x70, 0x36, 0xbd, 0x78, 0x58, 0x74, 0x3d,
     0xc3, 0x39, 0x26, 0xbe, 0x20, 0x63, 0xb4, 0x3d, 0x5d, 0xf1, 0xa4, 0xbd,
     0x70, 0x19, 0x57, 0x3e, 0x0c, 0xa7, 0x83, 0xbe, 0x32, 0xf1, 0x3d, 0xbe,
     0x0a, 0x3a, 0x8f, 0xbe, 0x74, 0x0a, 0xfa, 0x3d, 0xc8, 0xf1, 0x1b, 0xbd,
     0x7f, 0x77, 0x6c, 0x3e, 0x0e, 0x05, 0x51, 0x3e, 0xca, 0xde, 0x03, 0x3e,
     0x85, 0xb7, 0x69, 0xbe, 0x59, 0x1a, 0x8a, 0x3e, 0xe6, 0x2a, 0x5a, 0xbd,
     0xbe, 0x07, 0x3d, 0x3e, 0x93, 0xa3, 0x84, 0xbe, 0x62, 0x6e, 0x18, 0x3e,
     0x6c, 0x55, 0xd3, 0x3d, 0x94, 0x8d, 0x12, 0xbd, 0xc6, 0x4f, 0x7b, 0xbe,
     0x46, 0xa3, 0x68, 0xbc, 0x88, 0x7a, 0xcd, 0xbd, 0x71, 0x88, 0x10, 0x3e,
     0x1f, 0xbe, 0x76, 0x3e, 0xa9, 0xd0, 0x35, 0x3e, 0xc1, 0x49, 0x1a, 0xbe,
     0x9d, 0x27, 0x32, 0x3d, 0xc0, 0x84, 0xb2, 0x3d, 0x06, 0xe0, 0xa9, 0xbe,
     0x4e, 0x78, 0x61, 0x3e, 0xb7, 0xd1, 0x7e, 0x3e, 0x45, 0x6a, 0x7b, 0xbd,
     0x23, 0x04, 0x25, 0xbd, 0x38, 0x1a, 0xea, 0x39, 0x56, 0x37, 0xef, 0x3c,
     0x8f, 0xd0, 0x61, 0xbe, 0x52, 0x38, 0x28, 0x3e, 0x66, 0x76, 0x7d, 0x3e,
     0xb2, 0x4f, 0x8f, 0xbd, 0x6d, 0x95, 0x88, 0x3c, 0xd4, 0x00, 0xdb, 0x3d,
     0xc9, 0xd3, 0xa0, 0xbd, 0x6d, 0xf3, 0x61, 0xbe, 0x3d, 0xd8, 0xe2, 0xbc,
     0x2c, 0xcb, 0xcd, 0xbd, 0xe5, 0x73, 0xaf, 0xbe, 0x03, 0xa6, 0x5e, 0x3d,
     0x1e, 0xcb, 0x24, 0xbe, 0x9a, 0xb6, 0x37, 0xbe, 0xe2, 0x9e, 0x25, 0xbe,
     0xda, 0x8b, 0x56, 0xbe, 0xe1, 0x71, 0x96, 0xbe, 0x87, 0x84, 0x6d, 0x3e,
     0x81, 0x61, 0x1b, 0x3e, 0x4e, 0x6d, 0x23, 0xbd, 0x09, 0x3c, 0x9d, 0x3d,
     0xf4, 0x94, 0x51, 0xbe, 0x1c, 0xcb, 0x27, 0xbe, 0x1a, 0x02, 0xcd, 0xbd,
     0xf2, 0x2d, 0x8c, 0xbe, 0x56, 0xf0, 0xea, 0x3d, 0x53, 0x49, 0x71, 0x3e,
     0x4d, 0xbb, 0x8b, 0x3e, 0x52, 0xc0, 0x9d, 0xbe, 0x02, 0x00, 0x8b, 0xbe,
     0xeb, 0x24, 0x4b, 0x3d, 0x7c, 0x38, 0x37, 0xbe, 0xb1, 0x38, 0xa9, 0x3d,
     0x8c, 0x79, 0x82, 0x3e, 0x7c, 0xb3, 0xd3, 0xbd, 0x6c, 0x13, 0x6a, 0xbe,
     0x08, 0x86, 0xc7, 0x3d, 0x26, 0xeb, 0x64, 0xbe, 0x2e, 0xea, 0x8c, 0x3e,
     0xe6, 0x21, 0x41, 0xbe, 0x56, 0x89, 0x4b, 0x3e, 0xd0, 0x1f, 0xa2, 0xbc,
     0x56, 0xc6, 0xb8, 0xbc, 0x98, 0xd8, 0xac, 0x3d, 0x24, 0x13, 0xf9, 0xbd,
     0x3c, 0x5a, 0x08, 0xbe, 0x73, 0xc6, 0x85, 0xbd, 0xf3, 0xbf, 0x6b, 0x3d,
     0xd2, 0xc4, 0x77, 0xbe, 0xe0, 0xe6, 0x4b, 0xbe, 0xe0, 0x69, 0xcb, 0x3c,
     0xce, 0xf1, 0x82, 0xbe, 0x0a, 0x4a, 0x94, 0xbd, 0x50, 0xff, 0x7b, 0xbe,
     0xe0, 0xca, 0x22, 0x3e, 0x4d, 0xed, 0x3d, 0xbe, 0x54, 0x1c, 0x9a, 0xbd,
     0x48, 0xdf, 0x20, 0xbd, 0x6c, 0x4a, 0xab, 0x3d, 0x3b, 0xa9, 0x83, 0x3e,
     0x7e, 0xef, 0x5b, 0xbe, 0x40, 0xed, 0x5c, 0x3c, 0xae, 0x48, 0x55, 0xbe,
     0x81, 0xd1, 0x8c, 0xbe, 0x56, 0xc1, 0x3c, 0xbe, 0xe2, 0xed, 0x21, 0x3e,
     0x03, 0x9b, 0x50, 0xbe, 0xf8, 0x07, 0xdc, 0x3d, 0x18, 0x47, 0xd9, 0xbd,
     0xa4, 0xee, 0x37, 0xbe, 0x37, 0x1a, 0x87, 0x3e, 0xc0, 0xaa, 0x61, 0x3d,
     0xf9, 0x75, 0x4d, 0xbe, 0x1f, 0xf2, 0x81, 0xbe, 0x24, 0xf3, 0xcb, 0xbd,
     0x80, 0xb6, 0xaa, 0x3b, 0x98, 0x59, 0x88, 0xbe, 0x34, 0x1f, 0x2e, 0x3e,
     0xdf, 0x11, 0x6e, 0xbe, 0xe8, 0x13, 0x33, 0xbe, 0x38, 0x4d, 0xca, 0xbd,
     0x46, 0x26, 0x3e, 0xbc, 0xb7, 0x79, 0xec, 0x3e, 0x13, 0xe1, 0xa7, 0x3e,
     0xec, 0xfd, 0x38, 0x3e, 0xb9, 0x74, 0x4f, 0xbe, 0x69, 0xc9, 0x23, 0xbe,
     0x5e, 0x1a, 0x44, 0x3e, 0x8b, 0x9e, 0x88, 0x3e, 0x7f, 0x63, 0x5d, 0xbc,
     0x33, 0xbb, 0x88, 0xbe, 0x42, 0x43, 0x19, 0xbe, 0x66, 0x9b, 0x4c, 0xbe,
     0x12, 0x90, 0x5b, 0xbe, 0x9f, 0x0c, 0x9d, 0x3e, 0x16, 0x97, 0xaa, 0x3e,
     0xb2, 0x66, 0xea, 0xbe, 0x48, 0x5f, 0x55, 0xbc, 0xa5, 0x7c, 0x2e, 0xbe,
     0xc6, 0xee, 0x12, 0x3e, 0x0c, 0x53, 0x96, 0xbe, 0x36, 0x43, 0x21, 0xbe,
     0xe6, 0xf9, 0x00, 0xbf, 0x49, 0xcb, 0x8a, 0x3e, 0xcf, 0x63, 0xe6, 0x3e,
     0x04, 0x83, 0xa5, 0xbc, 0x61, 0xcd, 0x06, 0xbf, 0xf1, 0x48, 0x94, 0x3d,
     0x03, 0xaa, 0xb2, 0xbe, 0x3a, 0xff, 0x81, 0x3d, 0xd3, 0x41, 0x83, 0xbd,
     0x54, 0x72, 0x28, 0xbe, 0xe1, 0x47, 0x63, 0xbd, 0xe8, 0xb5, 0x1c, 0xbe,
     0x85, 0x7c, 0xda, 0x3e, 0x41, 0x88, 0xd6, 0xbd, 0x80, 0x4d, 0x88, 0xbd,
     0x93, 0xe7, 0xec, 0x3d, 0xa0, 0x22, 0x48, 0x3e, 0x68, 0xe3, 0xb4, 0x3d,
     0xb4, 0x58, 0xc5, 0xbc, 0xb9, 0x97, 0x51, 0xbe, 0x67, 0xf0, 0xe5, 0x3c,
     0xa2, 0x0c, 0x17, 0xbe, 0x59, 0xed, 0xcc, 0xbe, 0x35, 0x4c, 0x8d, 0x3b,
     0x2e, 0x60, 0x0f, 0x3b, 0xcb, 0xa8, 0x98, 0x3e, 0x02, 0x85, 0x0c, 0xbf,
     0xfb, 0x9e, 0x6b, 0xbe, 0x03, 0x1f, 0xda, 0x3d, 0x67, 0xeb, 0x0e, 0xbe,
     0xf4, 0xb6, 0x22, 0xbd, 0x8d, 0x8e, 0xc9, 0xbe, 0x16, 0x4b, 0x00, 0xbf,
     0x73, 0x74, 0x9f, 0x3e, 0x00, 0xb9, 0xd2, 0x3e, 0x78, 0x73, 0x00, 0xbd,
     0x9d, 0x4f, 0x1b, 0xbe, 0xf8, 0xb0, 0xb9, 0xbe, 0x61, 0x8e, 0xca, 0xbe,
     0xf5, 0x61, 0xe5, 0x3d, 0x14, 0x60, 0x89, 0xbe, 0x8e, 0x58, 0x75, 0xbe,
     0x00, 0x18, 0x62, 0x3e, 0xba, 0xe0, 0x50, 0xbe, 0x17, 0xb9, 0x46, 0xbe,
     0xff, 0x86, 0x86, 0xbe, 0xc8, 0x7b, 0x04, 0xbd, 0xf4, 0xda, 0x81, 0xbe,
     0x90, 0x31, 0xce, 0x3c, 0x49, 0xdc, 0x80, 0x3e, 0x14, 0xc9, 0xb4, 0xbd,
     0xae, 0x62, 0x5c, 0xbe, 0x90, 0x3d, 0x46, 0xbe, 0x10, 0xa4, 0xc6, 0x3d,
     0x74, 0x71, 0x66, 0xbe, 0x0e, 0xdc, 0x35, 0xbe, 0x8a, 0xdf, 0xbb, 0xbd,
     0x70, 0x10, 0x74, 0xbd, 0x10, 0xb1, 0x93, 0xbe, 0x3b, 0xf7, 0x9b, 0xbe,
     0x4a, 0x10, 0xbb, 0xbd, 0x5c, 0x2b, 0x25, 0x3e, 0xae, 0xd8, 0x4b, 0x3e,
     0x9d, 0x75, 0x80, 0x3e, 0x00, 0x27, 0xfe, 0x3d, 0x56, 0x7b, 0x16, 0xbe,
     0xc0, 0x79, 0x83, 0xbd, 0x61, 0x72, 0x89, 0x3e, 0x48, 0x2c, 0x16, 0x3d,
     0xa6, 0xde, 0x53, 0x3e, 0x68, 0x20, 0xab, 0x3d, 0x46, 0x7f, 0x4d, 0x3e,
     0x64, 0x25, 0x1d, 0x3e, 0x94, 0xc9, 0xce, 0x3d, 0x32, 0x4a, 0x22, 0x3e,
     0xca, 0xc0, 0x55, 0x3e, 0x0e, 0x5e, 0x20, 0xbf, 0xb5, 0xff, 0x1a, 0xbf,
     0xd7, 0x3d, 0x8c, 0x3e, 0xf3, 0xff, 0xbb, 0xbd, 0x08, 0x6e, 0xeb, 0x3d,
     0xdf, 0x7a, 0x1f, 0xbf, 0xea, 0x3c, 0x7e, 0x3e, 0x52, 0xb4, 0x87, 0xbe,
     0x9a, 0x1c, 0x5c, 0x3e, 0x6c, 0xd2, 0xab, 0xbe, 0xed, 0xe5, 0x93, 0x3e,
     0x8d, 0xb9, 0x93, 0x3e, 0x77, 0xc1, 0x81, 0xbe, 0x24, 0x5b, 0xa6, 0x3b,
     0xe0, 0x7d, 0x0f, 0x3e, 0xf9, 0xab, 0x3f, 0x3e, 0x87, 0xe7, 0x84, 0xbe,
     0xd2, 0x8e, 0xe5, 0xbd, 0x74, 0x9e, 0x96, 0xbe, 0x34, 0x45, 0x7a, 0xbe,
     0xb3, 0xa5, 0x36, 0xbe, 0x44, 0x87, 0xa1, 0xbe, 0x90, 0x2e, 0x73, 0xbe,
     0x97, 0xdd, 0xce, 0xbe, 0xe6, 0xa6, 0x88, 0xbe, 0x58, 0x91, 0xba, 0x3c,
     0x10, 0x83, 0x56, 0xbb, 0xb5, 0x97, 0xff, 0xbe, 0x7a, 0x6a, 0x5d, 0xbe,
     0x45, 0xbb, 0x3c, 0xbe, 0x1a, 0x5e, 0x54, 0xbe, 0x64, 0xb7, 0xf9, 0xbe,
     0x93, 0xdf, 0xaf, 0x3e, 0x9c, 0xc5, 0xd7, 0x3e, 0x0c, 0xe5, 0x92, 0xbe,
     0x5f, 0x2f, 0x8a, 0xbc, 0x6d, 0xb6, 0xac, 0x3d, 0x56, 0xd0, 0x86, 0x3e,
     0x4e, 0x05, 0x36, 0xbe, 0xd8, 0x31, 0x0e, 0xbe, 0x74, 0x83, 0x6f, 0xbe,
     0xcf, 0x32, 0x89, 0xbe, 0x11, 0xaf, 0xbc, 0x3d, 0x32, 0x1e, 0x9f, 0xbe,
     0xa4, 0x4d, 0x9d, 0x3e, 0x34, 0x8f, 0xaf, 0x3d, 0xa4, 0xe4, 0x77, 0x3d,
     0x49, 0xb4, 0xb8, 0xbc, 0xf8, 0x51, 0x60, 0xbe, 0x7d, 0x10, 0x42, 0x3e,
     0x6e, 0x29, 0xff, 0xbc, 0xe2, 0x35, 0xfe, 0xbe, 0x55, 0x49, 0x9a, 0xbe,
     0xd6, 0xc3, 0x37, 0x3e, 0x54, 0xd1, 0x25, 0x3e, 0xf9, 0x00, 0xed, 0x3d,
     0x38, 0x6a, 0x38, 0xbf, 0x99, 0xbb, 0xe4, 0xbd, 0xbf, 0x5c, 0x1c, 0x3e,
     0xe0, 0xc5, 0xd4, 0x3e, 0x2d, 0x3f, 0xcf, 0xbe, 0x44, 0xee, 0xaa, 0xbe,
     0x6d, 0x73, 0x84, 0xbe, 0xb3, 0x36, 0x49, 0xbe, 0x4c, 0xc8, 0xa9, 0x3d,
     0x23, 0x02, 0x9d, 0x3e, 0xc7, 0x1c, 0x5d, 0x3e, 0x55, 0x50, 0xf7, 0x3d,
     0x4a, 0x4a, 0xf6, 0x3d, 0xb5, 0xc6, 0x63, 0x3e, 0x26, 0x9b, 0x39, 0x3c,
     0x08, 0x0d, 0x1a, 0x3e, 0xab, 0x01, 0x88, 0xbe, 0xe9, 0x38, 0x30, 0xbd,
     0xec, 0x53, 0xb0, 0xbd, 0x9e, 0xb6, 0xde, 0xbd, 0xfe, 0x90, 0x22, 0xbe,
     0x6f, 0x08, 0x31, 0xbe, 0xb7, 0x4e, 0x98, 0x3e, 0xa5, 0xec, 0x89, 0xbe,
     0x52, 0x14, 0x99, 0xbe, 0xf2, 0x89, 0x8b, 0xbe, 0xbf, 0xea, 0x63, 0xbe,
     0xe2, 0xbc, 0x9b, 0x3e, 0x75, 0x90, 0xae, 0xbe, 0xcf, 0x81, 0xbe, 0x3e,
     0xb0, 0x27, 0xd4, 0x3c, 0x60, 0x66, 0xdf, 0x3d, 0x24, 0xf7, 0x9b, 0x3d,
     0xa9, 0xdc, 0x47, 0x3e, 0xbf, 0x16, 0xfa, 0x3d, 0x8f, 0xdb, 0x9d, 0x3d,
     0x16, 0x54, 0xa4, 0x3d, 0x92, 0x98, 0x92, 0x3e, 0x87, 0x4f, 0x84, 0x3e,
     0xae, 0xc7, 0xdf, 0xbe, 0x93, 0xfc, 0xff, 0x3d, 0x3e, 0x50, 0xf5, 0x3e,
     0x80, 0xf6, 0xa0, 0xbd, 0xf5, 0x04, 0xe1, 0x3e, 0xd4, 0x47, 0x20, 0x3e,
     0xcd, 0x98, 0x04, 0x3d, 0x17, 0x67, 0x17, 0xbe, 0x16, 0x62, 0x83, 0x3d,
     0xb8, 0x4c, 0x93, 0x3c, 0xb1, 0x18, 0x48, 0x3e, 0x57, 0x20, 0xb1, 0xbe,
     0x49, 0x75, 0x77, 0xbe, 0x13, 0xad, 0xd0, 0x3e, 0xfc, 0x59, 0xb0, 0xbd,
     0x11, 0x50, 0xc1, 0xbc, 0x11, 0xab, 0x13, 0x3d, 0x50, 0xff, 0x71, 0xbe,
     0x3c, 0x18, 0x9a, 0xbd, 0xd4, 0x23, 0x09, 0xbd, 0x03, 0x3c, 0x7a, 0x3e,
     0x20, 0x94, 0x56, 0xbe, 0x94, 0x96, 0x06, 0x3f, 0x65, 0x20, 0xcf, 0x3e,
     0x4a, 0xd7, 0xdb, 0x3d, 0x0f, 0xb5, 0x3f, 0x3e, 0x56, 0xab, 0x7b, 0xbe,
     0x18, 0xcf, 0x03, 0xbe, 0x05, 0x7e, 0xf1, 0x3c, 0x00, 0xb9, 0xd0, 0xbe,
     0x86, 0x95, 0x7c, 0x3e, 0xab, 0x69, 0x09, 0x3e, 0xdf, 0xd1, 0x36, 0x3d,
     0x4d, 0xc9, 0xe0, 0x3d, 0xbf, 0xb1, 0xb7, 0x3e, 0xf0, 0x10, 0x3f, 0xbe,
     0x45, 0x6e, 0xaf, 0xbc, 0x36, 0xdf, 0x94, 0xbe, 0x82, 0x33, 0x97, 0x3e,
     0xdc, 0x44, 0xa0, 0x3d, 0xc7, 0xdb, 0xf9, 0x3e, 0x07, 0x6b, 0x4a, 0x3d,
     0x9d, 0x29, 0x68, 0x3e, 0x7a, 0x4d, 0xb2, 0x3d, 0x57, 0x19, 0xa7, 0xbe,
     0x52, 0x7c, 0x67, 0x3c, 0x18, 0x5d, 0x3e, 0x3d, 0xce, 0x0c, 0xc0, 0x3d,
     0x6d, 0x29, 0x37, 0xbe, 0x5f, 0xbc, 0xb5, 0xbe, 0x17, 0xed, 0xa9, 0x3d,
     0xc4, 0x59, 0x49, 0xbe, 0xb3, 0x8b, 0xa2, 0x3e, 0x56, 0xb5, 0xaa, 0xbe,
     0xb2, 0xb7, 0x05, 0x3f, 0x53, 0xe6, 0x99, 0x3e, 0xfc, 0xf9, 0xde, 0x3e,
     0x46, 0x29, 0x4c, 0x3d, 0x35, 0x01, 0x47, 0x3e, 0xa8, 0xee, 0x88, 0x3d,
     0x06, 0xf7, 0x10, 0x3e, 0x44, 0xbb, 0x08, 0xbe, 0x7c, 0xb9, 0x0b, 0x3f,
     0x10, 0xb9, 0xda, 0xbd, 0xe6, 0x73, 0x85, 0xbd, 0xe5, 0xf9, 0xde, 0xbc,
     0xbf, 0x5e, 0x01, 0x3f, 0xbe, 0x3b, 0xe0, 0xbd, 0xc6, 0xa9, 0xd4, 0x3e,
     0x9e, 0xa5, 0xc4, 0x3d, 0xf7, 0x0d, 0x17, 0x3d, 0x76, 0x12, 0x4f, 0xbe,
     0xf7, 0x50, 0xbd, 0x3e, 0xf7, 0x73, 0x03, 0xbe, 0x39, 0xe9, 0xc7, 0xbd,
     0xb5, 0x50, 0x38, 0x3b, 0xff, 0x0f, 0xe1, 0x3d, 0xc1, 0xa0, 0x6a, 0x3e,
     0x9a, 0x3c, 0x6d, 0xbe, 0xa1, 0x20, 0xe8, 0x3c, 0xb8, 0x19, 0x63, 0x3e,
     0x35, 0xc1, 0x98, 0xbe, 0xc3, 0xac, 0x05, 0x3e, 0x7d, 0xbe, 0xf0, 0xbe,
     0xd2, 0x42, 0x85, 0x3c, 0xb6, 0xea, 0xae, 0xbd, 0x7f, 0xc2, 0xcc, 0x3e,
     0x66, 0xab, 0xf9, 0x3e, 0x89, 0xd7, 0xad, 0x3e, 0x26, 0x5c, 0xa7, 0x3e,
     0x6e, 0x61, 0x8b, 0xbe, 0xd7, 0x6b, 0x75, 0x3e, 0xd7, 0xf6, 0x25, 0xbd,
     0x8d, 0xd5, 0x0f, 0xbe, 0x05, 0x5d, 0x2c, 0xba, 0xbc, 0x22, 0x6b, 0xbe,
     0x0c, 0x07, 0x8f, 0xbd, 0x43, 0x7a, 0x55, 0xbe, 0xd8, 0xf0, 0x13, 0x3e,
     0xd2, 0xa4, 0x0a, 0xbe, 0x03, 0x54, 0x97, 0xbe, 0xb5, 0x39, 0x77, 0xbe,
     0xff, 0xc1, 0x28, 0xbe, 0xd0, 0x51, 0xec, 0x3d, 0xff, 0x46, 0x14, 0xbe,
     0x00, 0x26, 0xbc, 0xbd, 0x93, 0xd1, 0x88, 0x3e, 0x7a, 0xdb, 0xf8, 0xbd,
     0x70, 0x86, 0xcd, 0x3c, 0x22, 0x85, 0x6e, 0x3e, 0x85, 0x5b, 0x13, 0xbe,
     0xd0, 0x27, 0x28, 0xbe, 0x48, 0x2e, 0x97, 0xbd, 0xf4, 0xd8, 0x2d, 0x3e,
     0xe4, 0xb1, 0x6a, 0xbe, 0xeb, 0x1e, 0x81, 0xbe, 0x00, 0x14, 0x8d, 0x3b,
     0x0e, 0x70, 0x75, 0xbe, 0xa4, 0x80, 0xf6, 0x3d, 0x0e, 0x43, 0x8e, 0xbd,
     0x9a, 0x6e, 0x99, 0xbd, 0x90, 0x2f, 0xf1, 0xbd, 0x28, 0x38, 0xeb, 0xbd,
     0x82, 0x79, 0x65, 0x3e, 0xe6, 0x35, 0x8b, 0xbd, 0x6c, 0x3f, 0xee, 0x3d,
     0x99, 0x87, 0x87, 0xbe, 0x58, 0x1d, 0x5a, 0x3d, 0x2c, 0xb7, 0x93, 0xbe,
     0x60, 0x94, 0x11, 0xbf, 0x7b, 0xb1, 0x07, 0xbf, 0xe8, 0x64, 0x95, 0x3e,
     0x52, 0xfa, 0xc7, 0x3d, 0xab, 0x1c, 0x88, 0xbe, 0xa7, 0x93, 0xe4, 0xbe,
     0xe0, 0xf5, 0xa3, 0xbc, 0x7f, 0x38, 0x87, 0xbe, 0x53, 0x89, 0x73, 0x3d,
     0x92, 0x55, 0xd1, 0x3d, 0x48, 0x6e, 0x21, 0xbe, 0xee, 0xc0, 0x5d, 0x3e,
     0x8d, 0x73, 0xa6, 0xbe, 0xba, 0xc4, 0x49, 0x3e, 0x26, 0x4d, 0xfb, 0xbd,
     0x8a, 0x4b, 0xda, 0x3c, 0xa2, 0x83, 0x88, 0xbe, 0x3a, 0x0e, 0x6a, 0x3e,
     0x5c, 0xb6, 0x69, 0xbe, 0xae, 0xbd, 0x4a, 0xbe, 0xc5, 0xe1, 0x06, 0xbe,
     0x46, 0xc6, 0xd0, 0xbd, 0x49, 0x74, 0x7d, 0xbe, 0x94, 0xa6, 0x21, 0xbf,
     0xf2, 0x6d, 0x7f, 0x3e, 0xa9, 0x57, 0x32, 0x3e, 0xef, 0x23, 0x88, 0x3e,
     0x8c, 0x9f, 0x06, 0xbf, 0x54, 0xdc, 0xd6, 0x3d, 0x13, 0x6c, 0x3c, 0xbe,
     0xac, 0x51, 0x5d, 0x3e, 0x80, 0xd7, 0x5b, 0x3d, 0xd5, 0x85, 0xf9, 0x3e,
     0xe6, 0x25, 0xe0, 0x3d, 0xd3, 0x2a, 0x90, 0xbe, 0xe8, 0xc6, 0x17, 0xbe,
     0x79, 0x94, 0x69, 0xbd, 0xbf, 0x1e, 0xcb, 0x3e, 0x78, 0x6f, 0x4f, 0xbe,
     0x23, 0x04, 0x31, 0xbe, 0xae, 0xbf, 0xa9, 0xbe, 0x47, 0x2d, 0x3a, 0xbe,
     0x53, 0xea, 0xdc, 0xbe, 0x2d, 0xfc, 0x99, 0xbe, 0xad, 0x2f, 0x30, 0x3d,
     0x4f, 0x66, 0x88, 0x3e, 0x66, 0x7b, 0xa7, 0xbe, 0x7c, 0xc0, 0xa8, 0x3e,
     0xbf, 0x31, 0x96, 0xbe, 0x7c, 0x6e, 0x83, 0x3e, 0xd8, 0x9c, 0x0a, 0xbf,
     0xa8, 0xdd, 0xa0, 0xbe, 0x04, 0x94, 0x6e, 0xbd, 0x30, 0x1c, 0xb3, 0x3e,
     0xc7, 0x00, 0x07, 0x3e, 0xd4, 0x8e, 0xe4, 0x3e, 0xeb, 0x98, 0xfe, 0xbe,
     0xde, 0xb4, 0x4c, 0x3e, 0x10, 0x89, 0xae, 0xbd, 0xb3, 0x99, 0x9a, 0x3e,
     0xd4, 0x92, 0x62, 0xbe, 0x82, 0xe0, 0x09, 0xbf, 0xff, 0x80, 0x0a, 0xbe,
     0x6d, 0x2f, 0x69, 0xbe, 0x00, 0x4a, 0x4a, 0xbb, 0x03, 0xf1, 0x7e, 0xbe,
     0x9e, 0xa1, 0x4b, 0x3e, 0x3c, 0x25, 0x02, 0x3e, 0x69, 0xb3, 0x9c, 0x3e,
     0x20, 0xf3, 0x01, 0x3d, 0x08, 0x2d, 0x98, 0x3d, 0x30, 0x3e, 0x19, 0x3d,
     0x46, 0x90, 0x9b, 0xbe, 0xee, 0x48, 0x7c, 0x3e, 0xb0, 0xa8, 0xf3, 0xbc,
     0x53, 0xe3, 0x99, 0x3e, 0x0e, 0x5f, 0x6e, 0x3e, 0x26, 0x0b, 0x2c, 0x3e,
     0xf2, 0x2c, 0x86, 0xbe, 0x1f, 0x88, 0x99, 0xbe, 0xb2, 0x0f, 0x05, 0x3e,
     0x41, 0xf8, 0x4d, 0xbe, 0xc0, 0x83, 0x85, 0x3c, 0x18, 0x45, 0x23, 0xbd,
     0xa4, 0x3a, 0x83, 0xbd, 0x2a, 0x81, 0x7d, 0xbe, 0xd2, 0x2a, 0xb8, 0xbd,
     0x10, 0x9e, 0x18, 0xbd, 0x00, 0x2d, 0x46, 0x3d, 0x2d, 0x4f, 0x0b, 0xbe,
     0x20, 0xf0, 0xe6, 0xbd, 0x15, 0x41, 0x12, 0xbe, 0xea, 0x61, 0x97, 0xbd,
     0x55, 0x4b, 0x97, 0xbe, 0x10, 0xc0, 0x07, 0x3d, 0x39, 0x38, 0x5b, 0xbe,
     0x6a, 0x3e, 0x30, 0xbe, 0xf3, 0xd3, 0x9e, 0xbd, 0x32, 0xc4, 0x58, 0x3e,
     0x46, 0x81, 0x83, 0xbe, 0x78, 0xaa, 0x1f, 0x3e, 0xcf, 0x00, 0x82, 0xbe,
     0x9e, 0x79, 0x37, 0x3e, 0x33, 0xc6, 0x5e, 0x3e, 0x00, 0x2a, 0xfd, 0x3d,
     0xbc, 0xd4, 0x8c, 0x3d, 0x60, 0x65, 0x57, 0xbd, 0xe0, 0xe5, 0x3d, 0xbd,
     0xca, 0x9e, 0xa4, 0x3d, 0x36, 0x20, 0xcd, 0xbd, 0x66, 0x0d, 0x05, 0x3e,
     0x6b, 0x5b, 0x86, 0xbe, 0xa9, 0x62, 0x8d, 0x3e, 0xd0, 0x70, 0x92, 0xbc,
     0xa1, 0x91, 0x97, 0x3e, 0x5b, 0x85, 0xb7, 0x3d, 0x30, 0xb5, 0x2d, 0xbe,
     0xfa, 0xe8, 0x91, 0x3e, 0x4a, 0x0d, 0x5c, 0x3e, 0x63, 0xec, 0x2d, 0xbd,
     0xaf, 0xf1, 0x75, 0xbe, 0xa6, 0x3a, 0x9f, 0xbd, 0x4c, 0x95, 0x99, 0xbe,
     0x55, 0x95, 0x28, 0xbe, 0xe2, 0x57, 0x9a, 0x3c, 0xdc, 0xf6, 0xee, 0xbd,
     0x80, 0xdd, 0xe8, 0xbd, 0x7a, 0xfc, 0x8c, 0x3e, 0xee, 0x73, 0x35, 0xbf,
     0x77, 0x8a, 0xdf, 0xbe, 0xce, 0x70, 0x6d, 0x3e, 0xc3, 0xf5, 0x80, 0xbe,
     0xc1, 0x67, 0x5e, 0xbe, 0x60, 0xe6, 0x91, 0xbe, 0x22, 0xaf, 0x71, 0x3e,
     0xf0, 0xdf, 0x81, 0xbd, 0x5a, 0x8e, 0x8f, 0xbd, 0x14, 0xa0, 0x81, 0x3c,
     0x4b, 0xcb, 0xf9, 0xbc, 0x5e, 0x2d, 0x6c, 0x3e, 0xea, 0x4b, 0xc6, 0xbe,
     0xfd, 0x88, 0xb0, 0x3d, 0xd3, 0x77, 0x17, 0x3b, 0x50, 0xec, 0x91, 0x3e,
     0xf0, 0x1f, 0xd5, 0xbd, 0xd8, 0x9f, 0x07, 0xbd, 0xdb, 0x81, 0x86, 0xbe,
     0x45, 0xae, 0x63, 0x3d, 0xc0, 0xb8, 0xc5, 0x3d, 0x2c, 0xcd, 0xf0, 0xbe,
     0xf2, 0x0b, 0x8d, 0xbe, 0x01, 0x2e, 0x21, 0xbf, 0xff, 0xcb, 0xaf, 0xbd,
     0xc4, 0x6f, 0x47, 0x3e, 0xda, 0x44, 0x40, 0x3e, 0x3e, 0xa2, 0x04, 0xbf,
     0x17, 0x59, 0x41, 0xbe, 0x9d, 0x1b, 0x0a, 0xbe, 0x76, 0x87, 0x2b, 0xbe,
     0x63, 0xd9, 0x9e, 0x3e, 0x04, 0x12, 0x28, 0x3d, 0x64, 0xa9, 0x2b, 0xbd,
     0xc1, 0x00, 0x8a, 0x3e, 0x76, 0xa3, 0x80, 0xbf, 0xef, 0x96, 0x23, 0x3e,
     0xf5, 0x84, 0x1d, 0xbe, 0x7a, 0xff, 0xad, 0xbd, 0x54, 0xe4, 0x16, 0xc0,
     0xf6, 0xa8, 0xf6, 0x3d, 0xaf, 0x83, 0x44, 0xbf, 0x85, 0x47, 0x8a, 0x3e,
     0x69, 0x16, 0x1c, 0xbd, 0xdb, 0xfd, 0xc3, 0xbd, 0x26, 0xc0, 0x95, 0x3e,
     0x53, 0x88, 0x03, 0xbf, 0xd1, 0x22, 0xd8, 0x3e, 0x47, 0x81, 0xb3, 0x3e,
     0x6b, 0x79, 0xbb, 0xbd, 0x42, 0x9f, 0xbd, 0xbd, 0x4b, 0x9d, 0x1b, 0xbf,
     0x60, 0x09, 0x82, 0x3a, 0xf6, 0xa5, 0xa5, 0xbd, 0xcb, 0x8c, 0xf8, 0xbe,
     0x6a, 0xb1, 0x71, 0xbe, 0xb0, 0x6e, 0x01, 0xbd, 0xb6, 0xf6, 0xa7, 0x3d,
     0xcc, 0x4b, 0xa2, 0x3e, 0x50, 0x4e, 0x30, 0xbe, 0xf6, 0x4d, 0x38, 0x3e,
     0x73, 0x4b, 0xb5, 0xbf, 0xe7, 0x66, 0x74, 0x3e, 0x72, 0xff, 0xff, 0xff,
     0x04, 0x00, 0x00, 0x00, 0x80, 0x00, 0x00, 0x00, 0xa6, 0x03, 0x72, 0xbe,
     0x9a, 0x5c, 0x18, 0x3f, 0x10, 0x64, 0xa3, 0x3f, 0x41, 0x97, 0xe6, 0xbf,
     0x0b, 0xed, 0xaa, 0xbe, 0xb2, 0x8a, 0x0c, 0x3f, 0x6a, 0xbe, 0x29, 0xbe,
     0x87, 0x54, 0xe2, 0xbe, 0x71, 0xff, 0x33, 0xbd, 0xc9, 0xfd, 0x96, 0xbe,
     0xb7, 0x5b, 0xbd, 0x3e, 0xcc, 0x8a, 0xba, 0x3d, 0x95, 0x62, 0x6e, 0xbd,
     0x2b, 0xf5, 0x07, 0x3e, 0x25, 0x9d, 0x40, 0xbe, 0xc6, 0xfd, 0x3d, 0xbe,
     0xb5, 0x6a, 0xe7, 0x3e, 0xa7, 0xc9, 0x96, 0x3e, 0xb8, 0xf5, 0x63, 0xbd,
     0x91, 0x31, 0x9c, 0xbe, 0xbb, 0xad, 0x11, 0x3f, 0xb7, 0x34, 0x21, 0x3e,
     0x96, 0x68, 0xe1, 0x3e, 0xaa, 0xbd, 0xa8, 0x3f, 0x02, 0xf0, 0xc8, 0x3e,
     0x00, 0xf7, 0xbf, 0x3c, 0xb4, 0x09, 0x85, 0xbe, 0x1d, 0x4e, 0xe1, 0x3e,
     0x60, 0x0c, 0x1f, 0x3e, 0xf4, 0x00, 0x8e, 0xbe, 0xef, 0xac, 0xc8, 0xbe,
     0xad, 0xeb, 0x9a, 0x3f, 0x00, 0x00, 0x06, 0x00, 0x08, 0x00, 0x04, 0x00,
     0x06, 0x00, 0x00, 0x00, 0x04, 0x00, 0x00, 0x00, 0x80, 0x00, 0x00, 0x00,
     0x18, 0xa4, 0xfc, 0x3e, 0x89, 0xfa, 0x99, 0x3e, 0x5c, 0x99, 0x9f, 0x3e,
     0xe8, 0x12, 0x51, 0x3d, 0x3e, 0xbd, 0x13, 0xbf, 0x36, 0xe1, 0x87, 0x3e,
     0x9b, 0xdb, 0x92, 0x3e, 0x45, 0xe1, 0x1f, 0xbb, 0x22, 0x87, 0x7d, 0xbf,
     0x88, 0xb2, 0x84, 0x3c, 0xc1, 0x30, 0x26, 0xbf, 0x06, 0xfe, 0xd1, 0x3e,
     0xff, 0x05, 0xec, 0x3e, 0xe8, 0x2d, 0xc6, 0x3e, 0xe2, 0x61, 0xc6, 0x3e,
     0x73, 0xe3, 0x71, 0xbf, 0x8e, 0x70, 0x2b, 0x3f, 0x78, 0xad, 0xd1, 0x3e,
     0xd8, 0x83, 0x94, 0xba, 0xf2, 0x04, 0x00, 0x3f, 0x02, 0x99, 0x59, 0xbf,
     0x28, 0x9b, 0x01, 0x3f, 0xa8, 0xcd, 0x9d, 0x3e, 0xa9, 0xb0, 0xa2, 0x3e,
     0x45, 0x4e, 0xa8, 0x3e, 0x03, 0x49, 0x05, 0xbf, 0x1f, 0x70, 0x88, 0x3e,
     0xa0, 0x1f, 0xbe, 0xbc, 0xcd, 0xa5, 0x8c, 0x3e, 0xc0, 0xdc, 0xd4, 0x3e,
     0xe5, 0x90, 0x87, 0xbf, 0x2c, 0x04, 0x9e, 0x3e, 0x80, 0xfa, 0xff, 0xff,
     0x84, 0xfa, 0xff, 0xff, 0x0f, 0x00, 0x00, 0x00, 0x4d, 0x4c, 0x49, 0x52,
     0x20, 0x43, 0x6f, 0x6e, 0x76, 0x65, 0x72, 0x74, 0x65, 0x64, 0x2e, 0x00,
     0x01, 0x00, 0x00, 0x00, 0x14, 0x00, 0x00, 0x00, 0x00, 0x00, 0x0e, 0x00,
     0x18, 0x00, 0x14, 0x00, 0x10, 0x00, 0x0c, 0x00, 0x08, 0x00, 0x04, 0x00,
     0x0e, 0x00, 0x00, 0x00, 0x14, 0x00, 0x00, 0x00, 0x1c, 0x00, 0x00, 0x00,
     0x0c, 0x01, 0x00, 0x00, 0x10, 0x01, 0x00, 0x00, 0x14, 0x01, 0x00, 0x00,
     0x04, 0x00, 0x00, 0x00, 0x6d, 0x61, 0x69, 0x6e, 0x00, 0x00, 0x00, 0x00,
     0x04, 0x00, 0x00, 0x00, 0xc0, 0x00, 0x00, 0x00, 0x70, 0x00, 0x00, 0x00,
     0x38, 0x00, 0x00, 0x00, 0x04, 0x00, 0x00, 0x00, 0x5e, 0xff, 0xff, 0xff,
     0x10, 0x00, 0x00, 0x00, 0x00, 0x00, 0x00, 0x08, 0x0c, 0x00, 0x00, 0x00,
     0x10, 0x00, 0x00, 0x00, 0x00, 0xfb, 0xff, 0xff, 0x01, 0x00, 0x00, 0x00,
     0x0b, 0x00, 0x00, 0x00, 0x03, 0x00, 0x00, 0x00, 0x0a, 0x00, 0x00, 0x00,
     0x02, 0x00, 0x00, 0x00, 0x05, 0x00, 0x00, 0x00, 0x8e, 0xff, 0xff, 0xff,
     0x10, 0x00, 0x00, 0x00, 0x00, 0x00, 0x00, 0x08, 0x10, 0x00, 0x00, 0x00,
     0x14, 0x00, 0x00, 0x00, 0xca, 0xff, 0xff, 0xff, 0x00, 0x00, 0x00, 0x01,
     0x01, 0x00, 0x00, 0x00, 0x0a, 0x00, 0x00, 0x00, 0x03, 0x00, 0x00, 0x00,
     0x09, 0x00, 0x00, 0x00, 0x03, 0x00, 0x00, 0x00, 0x06, 0x00, 0x00, 0x00,
     0xc2, 0xff, 0xff, 0xff, 0x18, 0x00, 0x00, 0x00, 0x00, 0x00, 0x00, 0x08,
     0x18, 0x00, 0x00, 0x00, 0x1c, 0x00, 0x00, 0x00, 0x00, 0x00, 0x06, 0x00,
     0x08, 0x00, 0x07, 0x00, 0x06, 0x00, 0x00, 0x00, 0x00, 0x00, 0x00, 0x01,
     0x01, 0x00, 0x00, 0x00, 0x09, 0x00, 0x00, 0x00, 0x03, 0x00, 0x00, 0x00,
     0x08, 0x00, 0x00, 0x00, 0x04, 0x00, 0x00, 0x00, 0x01, 0x00, 0x00, 0x00,
     0x00, 0x00, 0x0e, 0x00, 0x14, 0x00, 0x00, 0x00, 0x10, 0x00, 0x0c, 0x00,
     0x0b, 0x00, 0x04, 0x00, 0x0e, 0x00, 0x00, 0x00, 0x10, 0x00, 0x00, 0x00,
     0x00, 0x00, 0x00, 0x08, 0x0c, 0x00, 0x00, 0x00, 0x10, 0x00, 0x00, 0x00,
     0xb0, 0xfb, 0xff, 0xff, 0x01, 0x00, 0x00, 0x00, 0x08, 0x00, 0x00, 0x00,
     0x03, 0x00, 0x00, 0x00, 0x00, 0x00, 0x00, 0x00, 0x07, 0x00, 0x00, 0x00,
     0xff, 0xff, 0xff, 0xff, 0x01, 0x00, 0x00, 0x00, 0x0b, 0x00, 0x00, 0x00,
     0x01, 0x00, 0x00, 0x00, 0x00, 0x00, 0x00, 0x00, 0x0c, 0x00, 0x00, 0x00,
     0xf8, 0x03, 0x00, 0x00, 0xa4, 0x03, 0x00, 0x00, 0x4c, 0x03, 0x00, 0x00,
     0x0c, 0x03, 0x00, 0x00, 0xcc, 0x02, 0x00, 0x00, 0x90, 0x02, 0x00, 0x00,
     0x54, 0x02, 0x00, 0x00, 0x08, 0x02, 0x00, 0x00, 0xa8, 0x01, 0x00, 0x00,
     0xf8, 0x00, 0x00, 0x00, 0x60, 0x00, 0x00, 0x00, 0x04, 0x00, 0x00, 0x00,
     0x4e, 0xfc, 0xff, 0xff, 0x00, 0x00, 0x00, 0x01, 0x14, 0x00, 0x00, 0x00,
     0x1c, 0x00, 0x00, 0x00, 0x1c, 0x00, 0x00, 0x00, 0x0c, 0x00, 0x00, 0x00,
     0x34, 0x00, 0x00, 0x00, 0x02, 0x00, 0x00, 0x00, 0xff, 0xff, 0xff, 0xff,
     0x01, 0x00, 0x00, 0x00, 0x38, 0xfc, 0xff, 0xff, 0x1b, 0x00, 0x00, 0x00,
     0x53, 0x74, 0x61, 0x74, 0x65, 0x66, 0x75, 0x6c, 0x50, 0x61, 0x72, 0x74,
     0x69, 0x74, 0x69, 0x6f, 0x6e, 0x65, 0x64, 0x43, 0x61, 0x6c, 0x6c, 0x5f,
     0x31, 0x3a, 0x30, 0x00, 0x02, 0x00, 0x00, 0x00, 0x01, 0x00, 0x00, 0x00,
     0x01, 0x00, 0x00, 0x00, 0xa6, 0xfc, 0xff, 0xff, 0x00, 0x00, 0x00, 0x01,
     0x14, 0x00, 0x00, 0x00, 0x1c, 0x00, 0x00, 0x00, 0x1c, 0x00, 0x00, 0x00,
     0x0b, 0x00, 0x00, 0x00, 0x70, 0x00, 0x00, 0x00, 0x02, 0x00, 0x00, 0x00,
     0xff, 0xff, 0xff, 0xff, 0x20, 0x00, 0x00, 0x00, 0x90, 0xfc, 0xff, 0xff,
     0x54, 0x00, 0x00, 0x00, 0x73, 0x65, 0x71, 0x75, 0x65, 0x6e, 0x74, 0x69,
     0x61, 0x6c, 0x5f, 0x31, 0x2f, 0x64, 0x65, 0x6e, 0x73, 0x65, 0x5f, 0x32,
     0x5f, 0x31, 0x2f, 0x4d, 0x61, 0x74, 0x4d, 0x75, 0x6c, 0x3b, 0x73, 0x65,
     0x71, 0x75, 0x65, 0x6e, 0x74, 0x69, 0x61, 0x6c, 0x5f, 0x31, 0x2f, 0x64,
     0x65, 0x6e, 0x73, 0x65, 0x5f, 0x32, 0x5f, 0x31, 0x2f, 0x52, 0x65, 0x6c,
     0x75, 0x3b, 0x73, 0x65, 0x71, 0x75, 0x65, 0x6e, 0x74, 0x69, 0x61, 0x6c,
     0x5f, 0x31, 0x2f, 0x64, 0x65, 0x6e, 0x73, 0x65, 0x5f, 0x32, 0x5f, 0x31,
     0x2f, 0x41, 0x64, 0x64, 0x00, 0x00, 0x00, 0x00, 0x02, 0x00, 0x00, 0x00,
     0x01, 0x00, 0x00, 0x00, 0x20, 0x00, 0x00, 0x00, 0x3a, 0xfd, 0xff, 0xff,
     0x00, 0x00, 0x00, 0x01, 0x14, 0x00, 0x00, 0x00, 0x1c, 0x00, 0x00, 0x00,
     0x1c, 0x00, 0x00, 0x00, 0x0a, 0x00, 0x00, 0x00, 0x88, 0x00, 0x00, 0x00,
     0x02, 0x00, 0x00, 0x00, 0xff, 0xff, 0xff, 0xff, 0x20, 0x00, 0x00, 0x00,
     0x24, 0xfd, 0xff, 0xff, 0x6d, 0x00, 0x00, 0x00, 0x73, 0x65, 0x71, 0x75,
     0x65, 0x6e, 0x74, 0x69, 0x61, 0x6c, 0x5f, 0x31, 0x2f, 0x64, 0x65, 0x6e,
     0x73, 0x65, 0x5f, 0x31, 0x2f, 0x41, 0x64, 0x64, 0x3b, 0x73, 0x65, 0x71,
     0x75, 0x65, 0x6e, 0x74, 0x69, 0x61, 0x6c, 0x5f, 0x31, 0x2f, 0x64, 0x65,
     0x6e, 0x73, 0x65, 0x5f, 0x31, 0x5f, 0x32, 0x2f, 0x4d, 0x61, 0x74, 0x4d,
     0x75, 0x6c, 0x3b, 0x73, 0x65, 0x71, 0x75, 0x65, 0x6e, 0x74, 0x69, 0x61,
     0x6c, 0x5f, 0x31, 0x2f, 0x64, 0x65, 0x6e, 0x73, 0x65, 0x5f, 0x31, 0x5f,
     0x32, 0x2f, 0x52, 0x65, 0x6c, 0x75, 0x3b, 0x73, 0x65, 0x71, 0x75, 0x65,
     0x6e, 0x74, 0x69, 0x61, 0x6c, 0x5f, 0x31, 0x2f, 0x64, 0x65, 0x6e, 0x73,
     0x65, 0x5f, 0x31, 0x5f, 0x32, 0x2f, 0x41, 0x64, 0x64, 0x00, 0x00, 0x00,
     0x02, 0x00, 0x00, 0x00, 0x01, 0x00, 0x00, 0x00, 0x20, 0x00, 0x00, 0x00,
     0xe6, 0xfd, 0xff, 0xff, 0x00, 0x00, 0x00, 0x01, 0x14, 0x00, 0x00, 0x00,
     0x1c, 0x00, 0x00, 0x00, 0x1c, 0x00, 0x00, 0x00, 0x09, 0x00, 0x00, 0x00,
     0x38, 0x00, 0x00, 0x00, 0x02, 0x00, 0x00, 0x00, 0xff, 0xff, 0xff, 0xff,
     0x01, 0x00, 0x00, 0x00, 0xd0, 0xfd, 0xff, 0xff, 0x1c, 0x00, 0x00, 0x00,
     0x73, 0x65, 0x71, 0x75, 0x65, 0x6e, 0x74, 0x69, 0x61, 0x6c, 0x5f, 0x31,
     0x2f, 0x64, 0x65, 0x6e, 0x73, 0x65, 0x5f, 0x31, 0x2f, 0x4d, 0x61, 0x74,
     0x4d, 0x75, 0x6c, 0x31, 0x00, 0x00, 0x00, 0x00, 0x02, 0x00, 0x00, 0x00,
     0x01, 0x00, 0x00, 0x00, 0x01, 0x00, 0x00, 0x00, 0x92, 0xfe, 0xff, 0xff,
     0x00, 0x00, 0x00, 0x01, 0x10, 0x00, 0x00, 0x00, 0x10, 0x00, 0x00, 0x00,
     0x08, 0x00, 0x00, 0x00, 0x28, 0x00, 0x00, 0x00, 0x1c, 0xfe, 0xff, 0xff,
     0x1b, 0x00, 0x00, 0x00, 0x73, 0x65, 0x71, 0x75, 0x65, 0x6e, 0x74, 0x69,
     0x61, 0x6c, 0x5f, 0x31, 0x2f, 0x64, 0x65, 0x6e, 0x73, 0x65, 0x5f, 0x31,
     0x2f, 0x4d, 0x61, 0x74, 0x4d, 0x75, 0x6c, 0x00, 0x02, 0x00, 0x00, 0x00,
     0x01, 0x00, 0x00, 0x00, 0x01, 0x00, 0x00, 0x00, 0xda, 0xfe, 0xff, 0xff,
     0x00, 0x00, 0x00, 0x01, 0x10, 0x00, 0x00, 0x00, 0x10, 0x00, 0x00, 0x00,
     0x07, 0x00, 0x00, 0x00, 0x1c, 0x00, 0x00, 0x00, 0x64, 0xfe, 0xff, 0xff,
     0x0f, 0x00, 0x00, 0x00, 0x61, 0x72, 0x69, 0x74, 0x68, 0x2e, 0x63, 0x6f,
     0x6e, 0x73, 0x74, 0x61, 0x6e, 0x74, 0x35, 0x00, 0x01, 0x00, 0x00, 0x00,
     0x20, 0x00, 0x00, 0x00, 0x12, 0xff, 0xff, 0xff, 0x00, 0x00, 0x00, 0x01,
     0x10, 0x00, 0x00, 0x00, 0x10, 0x00, 0x00, 0x00, 0x06, 0x00, 0x00, 0x00,
     0x1c, 0x00, 0x00, 0x00, 0x9c, 0xfe, 0xff, 0xff, 0x0f, 0x00, 0x00, 0x00,
     0x61, 0x72, 0x69, 0x74, 0x68, 0x2e, 0x63, 0x6f, 0x6e, 0x73, 0x74, 0x61,
     0x6e, 0x74, 0x34, 0x00, 0x01, 0x00, 0x00, 0x00, 0x01, 0x00, 0x00, 0x00,
     0x4a, 0xff, 0xff, 0xff, 0x00, 0x00, 0x00, 0x01, 0x10, 0x00, 0x00, 0x00,
     0x10, 0x00, 0x00, 0x00, 0x05, 0x00, 0x00, 0x00, 0x1c, 0x00, 0x00, 0x00,
     0xd4, 0xfe, 0xff, 0xff, 0x0f, 0x00, 0x00, 0x00, 0x61, 0x72, 0x69, 0x74,
     0x68, 0x2e, 0x63, 0x6f, 0x6e, 0x73, 0x74, 0x61, 0x6e, 0x74, 0x33, 0x00,
     0x02, 0x00, 0x00, 0x00, 0x20, 0x00, 0x00, 0x00, 0x01, 0x00, 0x00, 0x00,
     0x86, 0xff, 0xff, 0xff, 0x00, 0x00, 0x00, 0x01, 0x10, 0x00, 0x00, 0x00,
     0x10, 0x00, 0x00, 0x00, 0x04, 0x00, 0x00, 0x00, 0x1c, 0x00, 0x00, 0x00,
     0x10, 0xff, 0xff, 0xff, 0x0f, 0x00, 0x00, 0x00, 0x61, 0x72, 0x69, 0x74,
     0x68, 0x2e, 0x63, 0x6f, 0x6e, 0x73, 0x74, 0x61, 0x6e, 0x74, 0x32, 0x00,
     0x02, 0x00, 0x00, 0x00, 0x20, 0x00, 0x00, 0x00, 0x20, 0x00, 0x00, 0x00,
     0xc2, 0xff, 0xff, 0xff, 0x00, 0x00, 0x00, 0x01, 0x10, 0x00, 0x00, 0x00,
     0x10, 0x00, 0x00, 0x00, 0x03, 0x00, 0x00, 0x00, 0x1c, 0x00, 0x00, 0x00,
     0x4c, 0xff, 0xff, 0xff, 0x0f, 0x00, 0x00, 0x00, 0x61, 0x72, 0x69, 0x74,
     0x68, 0x2e, 0x63, 0x6f, 0x6e, 0x73, 0x74, 0x61, 0x6e, 0x74, 0x31, 0x00,
     0x02, 0x00, 0x00, 0x00, 0x01, 0x00, 0x00, 0x00, 0x20, 0x00, 0x00, 0x00,
     0x00, 0x00, 0x16, 0x00, 0x18, 0x00, 0x14, 0x00, 0x00, 0x00, 0x10, 0x00,
     0x0c, 0x00, 0x08, 0x00, 0x00, 0x00, 0x00, 0x00, 0x00, 0x00, 0x07, 0x00,
     0x16, 0x00, 0x00, 0x00, 0x00, 0x00, 0x00, 0x01, 0x10, 0x00, 0x00, 0x00,
     0x10, 0x00, 0x00, 0x00, 0x02, 0x00, 0x00, 0x00, 0x1c, 0x00, 0x00, 0x00,
     0xa0, 0xff, 0xff, 0xff, 0x0e, 0x00, 0x00, 0x00, 0x61, 0x72, 0x69, 0x74,
     0x68, 0x2e, 0x63, 0x6f, 0x6e, 0x73, 0x74, 0x61, 0x6e, 0x74, 0x00, 0x00,
     0x01, 0x00, 0x00, 0x00, 0x20, 0x00, 0x00, 0x00, 0x00, 0x00, 0x16, 0x00,
     0x1c, 0x00, 0x18, 0x00, 0x00, 0x00, 0x14, 0x00, 0x10, 0x00, 0x0c, 0x00,
     0x00, 0x00, 0x00, 0x00, 0x08, 0x00, 0x07, 0x00, 0x16, 0x00, 0x00, 0x00,
     0x00, 0x00, 0x00, 0x01, 0x14, 0x00, 0x00, 0x00, 0x20, 0x00, 0x00, 0x00,
     0x20, 0x00, 0x00, 0x00, 0x01, 0x00, 0x00, 0x00, 0x3c, 0x00, 0x00, 0x00,
     0x02, 0x00, 0x00, 0x00, 0xff, 0xff, 0xff, 0xff, 0x01, 0x00, 0x00, 0x00,
     0x04, 0x00, 0x04, 0x00, 0x04, 0x00, 0x00, 0x00, 0x1e, 0x00, 0x00, 0x00,
     0x73, 0x65, 0x72, 0x76, 0x69, 0x6e, 0x67, 0x5f, 0x64, 0x65, 0x66, 0x61,
     0x75, 0x6c, 0x74, 0x5f, 0x6b, 0x65, 0x72, 0x61, 0x73, 0x5f, 0x74, 0x65,
     0x6e, 0x73, 0x6f, 0x72, 0x3a, 0x30, 0x00, 0x00, 0x02, 0x00, 0x00, 0x00,
     0x01, 0x00, 0x00, 0x00, 0x01, 0x00, 0x00, 0x00, 0x01, 0x00, 0x00, 0x00,
     0x10, 0x00, 0x00, 0x00, 0x0c, 0x00, 0x0c, 0x00, 0x0b, 0x00, 0x00, 0x00,
     0x00, 0x00, 0x04, 0x00, 0x0c, 0x00, 0x00, 0x00, 0x09, 0x00, 0x00, 0x00,
     0x00, 0x00, 0x00, 0x09
};
